{"<PAD>":0,"<UNK>":1,"<BOS>":2,"<EOS>":3,"!":4,"\"":5,"#":6,"$":7,"%":8,"&":9,"'":10,"(":11,")":12,"*":13,"+":14,",":15,"-":16,".":17,"/":18,"0":19,"1":20,"2":21,"3":22,"4":23,"5":24,"6":25,"7":26,"8":27,"9":28,":":29,";":30,"<":31,"=":32,">":33,"?":34,"@":35,"A":36,"B":37,"C":38,"D":39,"E":40,"F":41,"G":42,"H":43,"I":44,"J":45,"K":46,"L":47,"M":48,"N":49,"O":50,"P":51,"Q":52,"R":53,"S":54,"T":55,"U":56,"V":57,"W":58,"X":59,"Y":60,"Z":61,"[":62,"\\":63,"]":64,"^":65,"_":66,"`":67,"a":68,"b":69,"c":70,"d":71,"e":72,"f":73,"g":74,"h":75,"i":76,"j":77,"k":78,"l":79,"m":80,"n":81,"o":82,"p":83,"q":84,"r":85,"s":86,"t":87,"u":88,"v":89,"w":90,"x":91,"y":92,"z":93,"{":94,"|":95,"}":96,"~":97,"¡":98,"¢":99,"£":100,"¤":101,"¥":102,"¦":103,"§":104,"¨":105,"©":106,"ª":107,"«":108,"¬":109,"®":110,"¯":111,"°":112,"±":113,"²":114,"³":115,"´":116,"µ":117,"¶":118,"·":119,"¸":120,"¹":121,"º":122,"»":123,"¼":124,"½":125,"¾":126,"¿":127,"À":128,"Á":129,"Â":130,"Ã":131,"Ä":132,"Å":133,"Æ":134,"Ç":135,"È":136,"É":137,"Ê":138,"Ë":139,"Ì":140,"Í":141,"Î":142,"Ï":143,"Ð":144,"Ñ":145,"Ò":146,"Ó":147,"Ô":148,"Õ":149,"Ö":150,"×":151,"Ø":152,"Ù":153,"Ú":154,"Û":155,"Ü":156,"Ý":157,"Þ":158,"ß":159,"à":160,"á":161,"â":162,"ã":163,"ä":164,"å":165,"æ":166,"ç":167,"è":168,"é":169,"ê":170,"ë":171,"ì":172,"í":173,"î":174,"ï":175,"ð":176,"ñ":177,"ò":178,"ó":179,"ô":180,"õ":181,"ö":182,"÷":183,"ø":184,"ù":185,"ú":186,"û":187,"ü":188,"ý":189,"þ":190,"ÿ":191,"Ā":192,"ā":193,"Ă":194,"ă":195,"Ą":196,"ą":197,"Ć":198,"ć":199,"Ĉ":200,"ĉ":201,"Ċ":202,"ċ":203,"Č":204,"č":205,"Ď":206,"ď":207,"Đ":208,"đ":209,"Ē":210,"ē":211,"Ĕ":212,"ĕ":213,"Ė":214,"ė":215,"Ę":216,"ę":217,"Ě":218,"ě":219,"Ĝ":220,"ĝ":221,"Ğ":222,"ğ":223,"Ġ":224,"ġ":225,"Ģ":226,"ģ":227,"Ĥ":228,"ĥ":229,"Ħ":230,"ħ":231,"Ĩ":232,"ĩ":233,"Ī":234,"ī":235,"Ĭ":236,"ĭ":237,"Į":238,"į":239,"İ":240,"ı":241,"Ĳ":242,"ĳ":243,"Ĵ":244,"ĵ":245,"Ķ":246,"ķ":247,"ĸ":248,"Ĺ":249,"ĺ":250,"Ļ":251,"ļ":252,"Ľ":253,"ľ":254,"Ŀ":255,"ŀ":256,"Ł":257,"ł":258,"Ń":259,"Ġt":260,"he":261,"Ġa":262,"ou":263,"Ġs":264,"Ġm":265,"in":266,"Ġw":267,"re":268,"ha":269,"nd":270,"Ġthe":271,"Ġb":272,"is":273,"or":274,"Ġf":275,"er":276,"ll":277,"it":278,"on":279,"Ġd":280,"Ġc":281,"es":282,"en":283,"Ġn":284,"Ġl":285,"Ġy":286,"Ġth":287,"ar":288,"Ġh":289,"Ġo":290,"Ġto":291,"Ġyou":292,"Ġp":293,"hat":294,"ĠI":295,"Ġhe":296,"ve":297,"ot":298,"st":299,"Ġand":300,"ow":301,"ing":302,"an":303,"Ġof":304,"om":305,"Ġg":306,"at":307,"Ġbe":308,"se":309,"Ġmy":310,"Ġin":311,"ce":312,"Ġha":313,"le":314,"ay":315,"ld":316,"ir":317,"et":318,"ed":319,"ut":320,"Ġme":321,"im":322,"ith":323,"'s":324,"Ġnot":325,"ch":326,"Ġthat":327,"Ġis":328,"gh":329,"And":330,"Ġfor":331,"ke":332,"Ġu":333,"our":334,"Ġwe":335,"oo":336,"ill":337,"Ġe":338,"her":339,"Ġwith":340,"ent":341,"Ġit":342,"Ġyour":343,"ad":344,"ri":345,"Ġthou":346,"Ġst":347,"'d":348,"Ġk":349,"ome":350,"Ġhis":351,"ght":352,"EN":353,"ord":354,"id":355,"The":356,"as":357,"Ġre":358,"Ġhave":359,"IN":360,"ly":361,"ra":362,"Ġli":363,"Ġhim":364,"ur":365,"Ġthis":366,"al":367,"IO":368,"Ġso":369,"Ġas":370,"Ġde":371,"Ġon":372,"ore":373,"ro":374,"AR":375,"hi":376,"ould":377,"ood":378,"ck":379,"ain":380,"ver":381,"est":382,"Ġthy":383,"Ġsha":384,"ess":385,"ea":386,"Ġdo":387,"Ġwill":388,"am":389,"Ġno":390,"Ġbut":391,"us":392,"and":393,"US":394,"if":395,"Ġse":396,"ge":397,"Th":398,"Ġall":399,"ake":400,"Ġsu":401,"To":402,"Ġher":403,"ru":404,"ion":405,"th":406,"Ġan":407,"ter":408,"ard":409,"Ġlo":410,"han":411,"ell":412,"ear":413,"Ġsp":414,"Ġthee":415,"Ġour":416,"Ġfa":417,"Ġshall":418,"Ġby":419,"UC":420,"il":421,"Ġare":422,"ING":423,"ĠC":424,"rom":425,"Ġne":426,"ho":427,"Ġkn":428,"AN":429,"ĠR":430,"That":431,"Ġv":432,"ER":433,"OR":434,"ast":435,"ct":436,"ous":437,"Ġwhat":438,"ight":439,"Ġsh":440,"ul":441,"ET":442,"Ġ'":443,"ant":444,"ES":445,"Ġup":446,"sel":447,"qu":448,"But":449,"art":450,"Ġgood":451,"row":452,"ine":453,"ath":454,"Ġlord":455,"hich":456,"nt":457,"ust":458,"'ll":459,"one":460,"Ġpr":461,"Ġcom":462,"Ġat":463,"Ġman":464,"What":465,"ĠM":466,"Ġwhe":467,"ĠE":468,"KING":469,"Ġam":470,"end":471,"ic":472,"Ġcon":473,"ble":474,"ry":475,"ong":476,"ie":477,"ive":478,"Ġbl":479,"Ġfrom":480,"ven":481,"ĠG":482,"For":483,"Ġshe":484,"em":485,"Ġgo":486,"are":487,"Ġmore":488,"IC":489,"out":490,"Ġthem":491,"au":492,"Ġwas":493,"oth":494,"other":495,"He":496,"Ġsir":497,"ol":498,"Ġnow":499,"ĠL":500,"Ġhat":501,"ost":502,"Ġif":503,"LO":504,"ind":505,"Ġthere":506,"Ġwould":507,"Ġknow":508,"Ġcan":509,"ers":510,"IUS":511,"ep":512,"self":513,"ARD":514,"ather":515,"fe":516,"ond":517,"res":518,"ate":519,"Ġsay":520,"Ġhere":521,"Ġlove":522,"Ġsw":523,"Ġtheir":524,"Ġbr":525,"pp":526,"Ġor":527,"--":528,"all":529,"ĠS":530,"Ġthan":531,"Ġthen":532,"Ġking":533,"Ġus":534,"ĠO":535,"ĠB":536,"Ġthey":537,"Ġar":538,"od":539,"My":540,"Ġlet":541,"Ġun":542,"ig":543,"Ġwor":544,"ure":545,"ink":546,"ĠH":547,"ort":548,"hy":549,"ĠV":550,"ame":551,"fore":552,"As":553,"Ġmay":554,"el":555,"Ġqu":556,"Ġcome":557,"ook":558,"Whe":559,"ish":560,"LI":561,"Ġwell":562,"KE":563,"ves":564,"Ġj":565,"Ġone":566,"Ġhath":567,"irst":568,"You":569,"Ġmake":570,"reat":571,"ak":572,"gain":573,"Ġmust":574,"ound":575,"ng":576,"Ġgra":577,"Ġwere":578,"Ġho":579,"ci":580,"Ġsee":581,"Ġlike":582,"ue":583,"eak":584,"TIO":585,"Ġshould":586,"ity":587,"Ġpro":588,"ĠP":589,"Ġsa":590,"Ġmad":591,"um":592,"Ġpl":593,"Ġfather":594,"RO":595,"AU":596,"Ġhad":597,"Ġdid":598,"pe":599,"ime":600,"Ġupon":601,"ice":602,"ON":603,"Ġtoo":604,"ence":605,"ĠW":606,"ward":607,"ist":608,"Ġdeath":609,"own":610,"man":611,"ose":612,"Ġen":613,"un":614,"IS":615,"ful":616,"nce":617,"Ġr":618,"Ġpo":619,"Ġspeak":620,"de":621,"entle":622,"io":623,"Ġout":624,"pt":625,"Ġwhich":626,"ICH":627,"Ġfri":628,"OL":629,"DU":630,"Ġagain":631,"DUKE":632,"Ġhow":633,"EL":634,"ick":635,"ĠA":636,"Ġtru":637,"Ġheart":638,"Ġyet":639,"Ġhand":640,"CA":641,"Thou":642,"very":643,"ICHARD":644,"ENTIO":645,"With":646,"ign":647,"Ġsome":648,"ance":649,"Ġwho":650,"Which":651,"If":652,"Ġwhen":653,"ies":654,"Ġmar":655,"ire":656,"Ġmine":657,"Ġhon":658,"har":659,"orn":660,"Ġoff":661,"ince":662,"INC":663,"In":664,"ack":665,"ĠY":666,"Ġson":667,"Ġdis":668,"Ġal":669,"'t":670,"We":671,"uch":672,"wn":673,"Ġhea":674,"First":675,"oy":676,"Ġtime":677,"Ġhear":678,"AB":679,"ec":680,"Ġsuch":681,"ness":682,"LA":683,"Ġbrother":684,"Of":685,"Ġblood":686,"ither":687,"Ġab":688,"UE":689,"Why":690,"Ġthese":691,"No":692,"Ġgive":693,"Ġfo":694,"Ġday":695,"ĠII":696,"Ġear":697,"ĠRICHARD":698,"TER":699,"Ġro":700,"ise":701,"Ġex":702,"Ġlife":703,"This":704,"eet":705,"Ġtell":706,"So":707,"Ġlook":708,"Ġthink":709,"UCH":710,"oul":711,"Ġword":712,"Ġey":713,"Ġwhere":714,"ag":715,"age":716,"een":717,"ther":718,"GLO":719,"Ġtake":720,"UCES":721,"Ġfriend":722,"GLOUCES":723,"GLOUCESTER":724,"ef":725,"erv":726,"ady":727,"rown":728,"Ġdes":729,"ings":730,"ave":731,"not":732,"Ġgentle":733,"urse":734,"How":735,"RY":736,"Ġri":737,"ase":738,"QUE":739,"way":740,"INCENTIO":741,"QUEEN":742,"Ġlea":743,"tis":744,"ĠOF":745,"Ġart":746,"Ġmost":747,"Where":748,"Ġhonour":749,"LAN":750,"Ġmuch":751,"Ġsl":752,"Ġwar":753,"Ġfl":754,"urn":755,"Ġmade":756,"ment":757,"Now":758,"Ġhast":759,"Ġtw":760,"Ġfear":761,"ĠT":762,"Ġbet":763,"ENRY":764,"aught":765,"Is":766,"LE":767,"ber":768,"ff":769,"ĠGod":770,"ough":771,"ved":772,"Ġbre":773,"cc":774,"ower":775,"Ġnever":776,"ĠVINCENTIO":777,"Be":778,"ap":779,"igh":780,"ĠK":781,"Ġgreat":782,"Ġfair":783,"Who":784,"ee":785,"tle":786,"Ġmen":787,"orrow":788,"Ġcou":789,"Ġnew":790,"ĠRome":791,"aster":792,"uke":793,"iz":794,"old":795,"ORK":796,"Ġpart":797,"ation":798,"INIUS":799,"ss":800,"ree":801,"ide":802,"Or":803,"Ġcall":804,"ple":805,"Ġany":806,"Ġheaven":807,"Ġad":808,"Ġcomm":809,"It":810,"Your":811,"Ġstand":812,"Ġcannot":813,"Ġtrue":814,"DW":815,"Ġname":816,"Ġbeen":817,"ears":818,"DWARD":819,"Ġcl":820,"Ġpre":821,"Ġsweet":822,",--":823,"Ġdoth":824,"Ġpray":825,"hing":826,"PET":827,"UM":828,"Ġnoble":829,"LUC":830,"MEN":831,"TH":832,"Ġown":833,"Ġple":834,"ass":835,"ĠD":836,"ouse":837,"Ġper":838,"Ay":839,"Come":840,"ull":841,"There":842,"Ġwr":843,"Ġdone":844,"ife":845,"aw":846,"Ġtr":847,"Ġway":848,"Ġother":849,"Ġhead":850,"Ġmean":851,"li":852,"red":853,"When":854,"dward":855,"Ġnor":856,"EO":857,"MEO":858,"Ġsc":859,"Ġsoul":860,"Ġpres":861,"ROMEO":862,"ace":863,"ving":864,"Ġnight":865,"Ġbear":866,"ENIUS":867,"aint":868,"ĠCl":869,"Ġworld":870,"MENENIUS":871,"ger":872,"Ġbefore":873,"ause":874,"Ġboth":875,"Ġqueen":876,"per":877,"Then":878,"aughter":879,"RUCH":880,"ock":881,"Ġchi":882,"Here":883,"PETRUCH":884,"PETRUCHIO":885,"OM":886,"able":887,"Ġvery":888,"Ġdead":889,"TES":890,"By":891,"Ġra":892,"ite":893,"Than":894,"the":895,"Ġke":896,"ab":897,"les":898,"ĠF":899,"Ġdown":900,"to":901,"Ġapp":902,"Ġmyself":903,"Ġcont":904,"GR":905,"HA":906,"Ġwh":907,"Ġrem":908,"ĠLord":909,"Ġarm":910,"Ġthus":911,"IOLAN":912,"ilt":913,"ORIOLAN":914,"ORIOLANUS":915,"CORIOLANUS":916,"Sec":917,"Ġleave":918,"Second":919,"Ġbeing":920,"ction":921,"ĠEdward":922,"Nor":923,"sw":924,"Ġunt":925,"ress":926,"Ġgrace":927,"less":928,"Ġbeg":929,"Ġeyes":930,"BA":931,"land":932,"Ġmother":933,"ran":934,"Ġma":935,"Ġold":936,"Ġim":937,"INA":938,"ĠEDWARD":939,"itiz":940,"itizen":941,"ps":942,"Ġlong":943,"Ġever":944,"ĠMar":945,"Ġlive":946,"Ġchild":947,"Let":948,"me":949,"Ġwife":950,"She":951,"Ġaway":952,"Ġrep":953,"ĠIII":954,"Ġwom":955,"Ġpoor":956,"Ġfriends":957,"come":958,"for":959,"wick":960,"Ġaf":961,"Ġmight":962,"nder":963,"Ġstay":964,"eace":965,"ks":966,"oud":967,"Ġdie":968,"atch":969,"led":970,"ĠJ":971,"Ġru":972,"arwick":973,"Ġcomes":974,"Ġcons":975,"Ġcrown":976,"ows":977,"Ġmany":978,"Ġpe":979,"Tis":980,"hall":981,"ison":982,"Ġle":983,"ĠYORK":984,"lo":985,"uck":986,"iss":987,"Ġhouse":988,"Ġhar":989,"Ġthought":990,"Ġrest":991,"ISAB":992,"ELLA":993,"ISABELLA":994,"ian":995,"erc":996,"Ġcour":997,"RAN":998,"Ġent":999,"Ġlie":1000,"che":1001,"Ġset":1002,"JU":1003,"well":1004,"ors":1005,"atter":1006,"LIET":1007,"ONTES":1008,"ĠWarwick":1009,"LEONTES":1010,"JULIET":1011,"Nay":1012,"int":1013,"ittle":1014,"Ġdaughter":1015,"Ġgone":1016,"Ġbetter":1017,"MI":1018,"rant":1019,"ought":1020,"Ġprince":1021,"DY":1022,"His":1023,"Ġtong":1024,"Ġwit":1025,"Ġnothing":1026,"CE":1027,"VOL":1028,"ENCE":1029,"LADY":1030,"BR":1031,"TA":1032,"cl":1033,"ied":1034,"Ġkeep":1035,"Go":1036,"Well":1037,"ces":1038,"ious":1039,"os":1040,"Ġsle":1041,"Ġres":1042,"hard":1043,"Ġnews":1044,"SIC":1045,"ft":1046,"ier":1047,"Ġtri":1048,"Ġmo":1049,"ret":1050,"ont":1051,"Ġthose":1052,"Ġgri":1053,"ool":1054,"une":1055,"SICINIUS":1056,"Not":1057,"Ġlittle":1058,"Ġlords":1059,"Ġagainst":1060,"ford":1061,"Ġbest":1062,"Ġhour":1063,"Ġhence":1064,"ardon":1065,"akes":1066,"lse":1067,"Ġacc":1068,"sed":1069,"Ġface":1070,"ult":1071,"Ġfoll":1072,"On":1073,"ew":1074,"ud":1075,"ark":1076,"Ġyoung":1077,"Ġend":1078,"ork":1079,"Ġthing":1080,"Ġstill":1081,"Ġkind":1082,"ield":1083,"ST":1084,"Ġpri":1085,"Ġpur":1086,"alk":1087,"Thy":1088,"Ġcomp":1089,"LUCIO":1090,"ale":1091,"ins":1092,"ert":1093,"Ġput":1094,"Ġpower":1095,"ĠIV":1096,"ichard":1097,"Ġtwo":1098,"Ġcha":1099,"Ġhimself":1100,"Pro":1101,"iness":1102,"Ġfirst":1103,"Ġpeace":1104,"Ġgu":1105,"Ġelse":1106,"ried":1107,"Ġdear":1108,"cious":1109,"Sir":1110,"ail":1111,"ty":1112,"ason":1113,"hile":1114,"Ġsub":1115,"Ġunto":1116,"ile":1117,"ray":1118,"Ġtill":1119,"Ġsm":1120,"uty":1121,"RI":1122,"ZAB":1123,"ect":1124,"Ġtra":1125,"Ġbid":1126,"Ġback":1127,"Ġdre":1128,"Ġhus":1129,"ETH":1130,"ĠELI":1131,"Ġtherefore":1132,"Ġearth":1133,"Ġwords":1134,"Ġcount":1135,"ZABETH":1136,"ĠELIZABETH":1137,"Have":1138,"band":1139,"ius":1140,"men":1141,"ople":1142,"yal":1143,"Ġfind":1144,"Ġcould":1145,"Ġtongue":1146,"orse":1147,"Ġlady":1148,"Ġthine":1149,"Ġneed":1150,"ĠYork":1151,"HENRY":1152,"get":1153,"tw":1154,"Ġtre":1155,"Ġfell":1156,"enry":1157,"Ġhigh":1158,"Ġforth":1159,"Ġhope":1160,"MER":1161,"St":1162,"lp":1163,"Ġhome":1164,"vere":1165,"eth":1166,"Ġseem":1167,"eech":1168,"ĠRomeo":1169,"Ġhusband":1170,"CL":1171,"Ġduke":1172,"Ġright":1173,"GE":1174,"WAR":1175,"WIC":1176,"fort":1177,"ĠWhat":1178,"rer":1179,"Ġban":1180,"uth":1181,"Ġthough":1182,"ĠVI":1183,"WARWIC":1184,"WARWICK":1185,"UT":1186,"ach":1187,"ix":1188,"Ġmind":1189,"Ġbra":1190,"ister":1191,"Ġche":1192,"Ġchar":1193,"hip":1194,"ĠHENRY":1195,"Ġpeople":1196,"Nurse":1197,"ds":1198,"ged":1199,"ĠCitizen":1200,"ren":1201,"They":1202,"ĠHenry":1203,"HAM":1204,"IAN":1205,"LET":1206,"PU":1207,"eed":1208,"Ġbri":1209,"Ġchan":1210,"Ġlaw":1211,"ĠRichard":1212,"Ġshow":1213,"Ġconf":1214,"Ġhands":1215,"PULET":1216,"EY":1217,"be":1218,"Ġmaster":1219,"Ġwhy":1220,"Ġco":1221,"Ġcause":1222,"Ġgl":1223,"Ġonce":1224,"Ġsaid":1225,"Ġimp":1226,"Good":1227,"MIO":1228,"Shall":1229,"Ġbod":1230,"Ġnone":1231,"ousin":1232,"Ġjoy":1233,"ervant":1234,"All":1235,"bt":1236,"Ġfort":1237,"Ġbring":1238,"Yet":1239,"Ġdou":1240,"ates":1241,"Ġevery":1242,"UCKING":1243,"BRUT":1244,"UCKINGHAM":1245,"BRUTUS":1246,"BRO":1247,"BUCKINGHAM":1248,"From":1249,"TRAN":1250,"iet":1251,"Ġmist":1252,"Ġpass":1253,"ird":1254,"Ġlight":1255,"INGBRO":1256,"ESS":1257,"ĠBOL":1258,"TRANIO":1259,"INGBROKE":1260,"ĠBOLINGBROKE":1261,"Do":1262,"Will":1263,"lt":1264,"vost":1265,"Ġwo":1266,"Ġnat":1267,"Ġthr":1268,"Ġroyal":1269,"swer":1270,"PER":1271,"TIS":1272,"cle":1273,"Ġtears":1274,"its":1275,"Ġcame":1276,"ary":1277,"ĠMAR":1278,"Ġwhose":1279,"Ġplease":1280,"lf":1281,"vy":1282,"ory":1283,"Ġpardon":1284,"roke":1285,"ĠAn":1286,"Cl":1287,"GAR":1288,"NE":1289,"pose":1290,"Ġbes":1291,"Ġboy":1292,"Ġfull":1293,"arry":1294,"Ġheard":1295,"Ġhapp":1296,"Ġdev":1297,"Ġjust":1298,"Ġwrong":1299,"Ġpresent":1300,"ĠMARGAR":1301,"ĠMARGARET":1302,"ATH":1303,"eel":1304,"Ġsince":1305,"Ġmis":1306,"ens":1307,"Ġland":1308,"Ġlast":1309,"Ġere":1310,"Ġstate":1311,"Ġplace":1312,"MIL":1313,"bl":1314,"sand":1315,"Ġmeet":1316,"Ġunder":1317,"Ġkill":1318,"Ġafter":1319,"HOR":1320,"cent":1321,"Ġsorrow":1322,"ition":1323,"Ġcare":1324,"Ġthousand":1325,"esty":1326,"ANGE":1327,"ORD":1328,"Ġhold":1329,"GRE":1330,"ANGELO":1331,"CU":1332,"Our":1333,"Ġhelp":1334,"ARINA":1335,"arence":1336,"Ġwhom":1337,"Ġfollow":1338,"KATH":1339,"day":1340,"Ġfar":1341,"Ġless":1342,"Ġhither":1343,"ceive":1344,"irt":1345,"Ġweep":1346,"Ġshame":1347,"selves":1348,"cius":1349,"Ġenem":1350,"Ġabout":1351,"Ġeye":1352,"KATHARINA":1353,"iol":1354,"Ġfal":1355,"Ġfool":1356,"ons":1357,"Ġpat":1358,"urde":1359,"Ġsun":1360,"Ġanswer":1361,"air":1362,"Ġch":1363,"asure":1364,"Ġfall":1365,"Ġmaid":1366,"LUS":1367,"Un":1368,"Up":1369,"ount":1370,"Ġbus":1371,"Ġcousin":1372,"thy":1373,"ESCA":1374,"Ġhate":1375,"Ġgracious":1376,"Ġgentleman":1377,"ĠKing":1378,"Ġgrief":1379,"ESCALUS":1380,"An":1381,"ject":1382,"ove":1383,"Ġmakes":1384,"Ġinto":1385,"imes":1386,"Ġstri":1387,"Hath":1388,"iv":1389,"ild":1390,"Ġstre":1391,"ĠEng":1392,"Ġwoman":1393,"DUCH":1394,"Ġturn":1395,"Ġhum":1396,"Ġbel":1397,"alt":1398,"Ġdost":1399,"Ġcomfort":1400,"ices":1401,"Ġcoun":1402,"ĠDuke":1403,"Ġcourt":1404,"Ġsleep":1405,"urderer":1406,"DUCHESS":1407,"Lord":1408,"pher":1409,"Ġtalk":1410,"itor":1411,"Ġover":1412,"Ġbody":1413,"morrow":1414,"Ġwilt":1415,"Ġbu":1416,"Ġgr":1417,"ute":1418,"gelo":1419,"deed":1420,"ĠMarcius":1421,"IA":1422,"ience":1423,"Ġi":1424,"ised":1425,"Ġbed":1426,"Ġfault":1427,"Ġatt":1428,"ieve":1429,"Ġprove":1430,"Ġplay":1431,"CAMIL":1432,"ĠClarence":1433,"CAMILLO":1434,"God":1435,"ere":1436,"ily":1437,"Ġsound":1438,"Ġdra":1439,"ans":1440,"omet":1441,"Ġinst":1442,"Ġwel":1443,"ade":1444,"Ġret":1445,"Ġdeed":1446,"Ġthank":1447,"TEN":1448,"Ġser":1449,"Ġbo":1450,"Ġfight":1451,"Ġindeed":1452,"illain":1453,"hold":1454,"Ġvo":1455,"Ġsword":1456,"ĠAngelo":1457,"HORTEN":1458,"Ġfalse":1459,"HORTENS":1460,"FRI":1461,"Sh":1462,"Ġuse":1463,"Ġeven":1464,"Ġsovere":1465,"Ġanother":1466,"Ġgrave":1467,"Ġadv":1468,"Provost":1469,"Ġfellow":1470,"Upon":1471,"HORTENSIO":1472,"FRIAR":1473,",'":1474,"PTIS":1475,"eal":1476,"Ġcur":1477,"Ġhas":1478,"Ġem":1479,"ury":1480,"pect":1481,"BAPTIS":1482,"Ġbanish":1483,"Ġfortune":1484,"BAPTISTA":1485,"CUS":1486,"COM":1487,"TOL":1488,"YCUS":1489,"pl":1490,"pen":1491,"ouch":1492,"Ġmerc":1493,"Ġmatter":1494,"Ġwant":1495,"Ġreven":1496,"Ġass":1497,"Ġsend":1498,"Ġprison":1499,"fect":1500,"AUTOL":1501,"Ġrather":1502,"Ġcountry":1503,"Ġdoubt":1504,"COMINIUS":1505,"AUTOLYCUS":1506,".'":1507,"Are":1508,"Even":1509,"More":1510,"Ġwish":1511,"Ġyears":1512,"Ġreason":1513,"Ġlies":1514,"Ġonly":1515,"ARENCE":1516,"Third":1517,"Ġvirt":1518,"Ġtruth":1519,"Would":1520,"ior":1521,"ms":1522,"of":1523,"rance":1524,"ĠBut":1525,"Ġdan":1526,"Ġpers":1527,"any":1528,"Ġbreath":1529,"Ġarms":1530,"Ġdream":1531,"CLARENCE":1532,"pherd":1533,"BEN":1534,"MAR":1535,"NOR":1536,"dd":1537,"der":1538,"Ġsent":1539,"ener":1540,"Ġgi":1541,"Ġstra":1542,"Ġshalt":1543,"Ġdisc":1544,"VOLIO":1545,"Clown":1546,"Ġbusiness":1547,"BENVOLIO":1548,"Al":1549,"At":1550,"PRO":1551,"SPER":1552,"by":1553,"hed":1554,"Ġsen":1555,"Ġprom":1556,"Ġholy":1557,"Ġenough":1558,"erving":1559,"Ġcommand":1560,"UMIO":1561,"GRUMIO":1562,"PROSPER":1563,"PROSPERO":1564,"ia":1565,"ken":1566,"Ġsea":1567,"Ġwind":1568,"itt":1569,"Ġcra":1570,"Ġlay":1571,"ars":1572,"Ġpity":1573,"ator":1574,"Ġbea":1575,"Ġhang":1576,"Ġstran":1577,"Ġsold":1578,"Ġspir":1579,"Ġfare":1580,"Ġproud":1581,"ĠMurderer":1582,"Ġswear":1583,"Ġcontent":1584,"MERCU":1585,"MERCUTIO":1586,"ike":1587,"Ġdare":1588,"eter":1589,"Ġlives":1590,"Ġdep":1591,"Ġsec":1592,"Ġvillain":1593,"gainst":1594,"ĠKate":1595,"LUCENTIO":1596,"Ġremem":1597,"Ġnature":1598,"Ġwelcome":1599,"POM":1600,"Tw":1601,"com":1602,"unt":1603,"Ġtend":1604,"ham":1605,"Ġfree":1606,"Ġgre":1607,"Ġget":1608,"Ġint":1609,"Ġwithin":1610,"Ġkiss":1611,"ester":1612,"ĠCome":1613,"Ġgods":1614,"Ġsaw":1615,"Ġmadam":1616,"LAND":1617,"Ġhappy":1618,"Ġsovereign":1619,"POMP":1620,"LINA":1621,"PAU":1622,"apt":1623,"Ġserv":1624,"Ġsister":1625,"Ġsomet":1626,"hal":1627,"Ġfoul":1628,"Ġcity":1629,"vers":1630,"Were":1631,"Ġbeseech":1632,"PAULINA":1633,"YORK":1634,"ient":1635,"use":1636,"ery":1637,"Ġden":1638,"Ġyield":1639,"Ġthree":1640,"Ġoath":1641,"Ġyours":1642,"onder":1643,"ague":1644,"Ġbreak":1645,"Ġmeans":1646,"Ġsubject":1647,"gether":1648,"GREMIO":1649,"POMPEY":1650,"NIA":1651,"OLI":1652,"POLI":1653,"XEN":1654,"balt":1655,"ybalt":1656,"ĠNor":1657,"Ġaw":1658,"Ġmer":1659,"Ġwhile":1660,"Ġborn":1661,"Ġthings":1662,"Ġhorse":1663,"anc":1664,"usic":1665,"ANT":1666,"Ġbloody":1667,"Ġlooks":1668,"eft":1669,"UMNIA":1670,"like":1671,"ches":1672,"VOLUMNIA":1673,"POLIXEN":1674,"POLIXENES":1675,"GON":1676,"Her":1677,"rong":1678,"up":1679,"ues":1680,"Ġtem":1681,"Ġwin":1682,"Ġwound":1683,"Ġfire":1684,"enger":1685,"Ġyourself":1686,"Ġsupp":1687,"Ġspo":1688,"Ġfaith":1689,"INGS":1690,"ĠServing":1691,"Ġmaj":1692,"STINGS":1693,"Ġtraitor":1694,"centio":1695,"ĠServingman":1696,"RENCE":1697,"Say":1698,"bs":1699,"broke":1700,"rem":1701,"Ġdru":1702,"Ġlam":1703,"essenger":1704,"ĠLAU":1705,"Ġmark":1706,"Ġcommon":1707,"HASTINGS":1708,"Ġchildren":1709,"ertain":1710,"Ġmistress":1711,"ĠLAURENCE":1712,"BY":1713,"BER":1714,"Ġcond":1715,"Ġbeat":1716,"Ġrequ":1717,"Ġdef":1718,"Ġval":1719,"Ġuncle":1720,"Therefore":1721,"form":1722,"Ġmajesty":1723,"CLI":1724,"FF":1725,"Look":1726,"Was":1727,"Ġaff":1728,"Ġsin":1729,"Ġmet":1730,"Ġlate":1731,"Ġleft":1732,"Ġtold":1733,"Ġsoon":1734,"Ġseen":1735,"Ġsave":1736,"Ġdays":1737,"UMBER":1738,"THUMBER":1739,"Ġwoe":1740,"ĠEngland":1741,"NORTHUMBER":1742,"Ġtender":1743,"CLIFF":1744,"NORTHUMBERLAND":1745,"ID":1746,"Take":1747,"bed":1748,"ever":1749,"ring":1750,"ten":1751,"Ġsight":1752,"Ġmon":1753,"Ġgener":1754,"ides":1755,"idow":1756,"Ġdoes":1757,"Though":1758,"Ġreturn":1759,"Ġmercy":1760,"Ġfarewell":1761,"ac":1762,"dom":1763,"mp":1764,"ĠAN":1765,"hes":1766,"Ġsit":1767,"Ġsad":1768,"rel":1769,"Ġdeep":1770,"ters":1771,"Ġgold":1772,"unes":1773,"Ġmarry":1774,"Ġheavy":1775,"Ġfoot":1776,"Ġwarrant":1777,"ĠJul":1778,"Ġpurpose":1779,"Ġthrough":1780,"Ġdanger":1781,"ĠANNE":1782,"Ah":1783,"Did":1784,"Give":1785,"PR":1786,"aim":1787,"ict":1788,"mer":1789,"so":1790,"und":1791,"vent":1792,"Ġill":1793,"Ġcho":1794,"Ġcold":1795,"Ġnurse":1796,"Ġtogether":1797,"Ġgrow":1798,"ours":1799,"ifford":1800,"Ġsure":1801,"earn":1802,"CAPULET":1803,"ignior":1804,"INCE":1805,"Ġdeser":1806,"ments":1807,"PRINCE":1808,"az":1809,"aid":1810,"ca":1811,"oint":1812,"Ġtimes":1813,"oriol":1814,"ingbroke":1815,"ceed":1816,"Ġwithout":1817,"enty":1818,"Ġask":1819,"ross":1820,"ush":1821,"Ġlost":1822,"arewell":1823,"olingbroke":1824,"Ġpluck":1825,"Ġreport":1826,"Ġliege":1827,"Ġbelieve":1828,"Ġspirit":1829,"ling":1830,"sh":1831,"xt":1832,"Ġair":1833,"Ġage":1834,"outh":1835,"Ġwat":1836,"Ġheir":1837,"ets":1838,"ains":1839,"Ġthyself":1840,"ift":1841,"Ġloss":1842,"ĠMont":1843,"Ġsays":1844,"ĠBolingbroke":1845,"Whose":1846,"One":1847,"Ġstrange":1848,"ALO":1849,"Had":1850,"ial":1851,"no":1852,"ner":1853,"Ġbat":1854,"Ġcry":1855,"Ġlearn":1856,"ced":1857,"Ġsuff":1858,"aking":1859,"Ġears":1860,"Ġhaste":1861,"ĠClifford":1862,"Ġentreat":1863,"Ġdevil":1864,"Ġground":1865,"Should":1866,"Ġperson":1867,"ĠJuliet":1868,"Like":1869,"Wh":1870,"ges":1871,"night":1872,"Ġmur":1873,"ined":1874,"Ġfly":1875,"Ġtoward":1876,"Ġpast":1877,"oman":1878,"let":1879,"Ġfast":1880,"Ġvis":1881,"aud":1882,"ĠLu":1883,"Ġpoint":1884,"Ġfriar":1885,"Ġdisp":1886,"Ġslain":1887,"Ġbetw":1888,"ĠFrance":1889,"ixt":1890,"Ġjustice":1891,"Ġstraight":1892,"Ġremember":1893,"APULET":1894,"FL":1895,"FID":1896,"IZ":1897,"May":1898,"Some":1899,"Ġord":1900,"Ġsil":1901,"ina":1902,"Ġbold":1903,"Ġcurse":1904,"Ġnear":1905,"ution":1906,"Ġstrong":1907,"These":1908,"ĠCAPULET":1909,"ORIZ":1910,"Ġworthy":1911,"Ġquick":1912,"AUFID":1913,"entleman":1914,"Ġtrust":1915,"Ġalone":1916,"Ġdesire":1917,"Ġinstru":1918,"Ġbeauty":1919,"Ġservice":1920,"FLORIZ":1921,"AUFIDIUS":1922,"FLORIZEL":1923,"Can":1924,"SE":1925,"Tell":1926,"VER":1927,"gs":1928,"ning":1929,"ship":1930,"with":1931,"Ġtouch":1932,"Ġfound":1933,"ithe":1934,"ĠIs":1935,"adam":1936,"Ġready":1937,"ION":1938,"Ġbrought":1939,"ured":1940,"Ġposs":1941,"ĠTybalt":1942,"Ġrun":1943,"Ġhard":1944,"Ġenemy":1945,"Ġrevenge":1946,"Ġgeneral":1947,"audio":1948,"!'":1949,"Ha":1950,"ible":1951,"vo":1952,"ĠHere":1953,"Ġwoo":1954,"Ġduty":1955,"enator":1956,"Ġgrant":1957,"Ġinf":1958,"cept":1959,"Ġitself":1960,"amill":1961,"Ġlose":1962,"aunt":1963,"Ġknows":1964,"Ġcanst":1965,"ĠSenator":1966,"inks":1967,"umber":1968,"Ġmarried":1969,"Ġthoughts":1970,"Ġcharge":1971,"Against":1972,"Bec":1973,"CIUS":1974,"RICHARD":1975,"Sp":1976,"cester":1977,"eep":1978,"gu":1979,"lou":1980,"sue":1981,"ua":1982,"ĠYou":1983,"Ġmorn":1984,"Ġwear":1985,"riage":1986,"Ġread":1987,"Ġdeli":1988,"Ġspeed":1989,"Ġquar":1990,"Ġprof":1991,"Ġtwenty":1992,"Ġstands":1993,"BAST":1994,"Shepherd":1995,"ched":1996,"Ġhours":1997,"Ġconfess":1998,"Ġstreng":1999,"SEBAST":2000,"ithee":2001,"SEBASTIAN":2002,"OW":2003,"cess":2004,"ĠN":2005,"Ġmock":2006,"Ġfur":2007,"Ġfore":2008,"Ġfield":2009,"ones":2010,"Ġdiv":2011,"Ġcar":2012,"Ġyouth":2013,"Ġpost":2014,"Ġhell":2015,"ingham":2016,"Ġhalf":2017,"oop":2018,"Thus":2019,"ĠRi":2020,"olk":2021,"fection":2022,"ĠHast":2023,"Ġjud":2024,"ump":2025,"Ġexec":2026,"Ġfearful":2027,"Ġcounsel":2028,"amillo":2029,"BION":2030,"Com":2031,"DEL":2032,"Till":2033,"most":2034,"pare":2035,"Ġter":2036,"Ġmin":2037,"Ġwret":2038,"Ġbos":2039,"Ġpar":2040,"Ġbehold":2041,"Ġinc":2042,"Ġeach":2043,"ads":2044,"Ġrec":2045,"Ġdel":2046,"ĠCoriol":2047,"ols":2048,"Ġwork":2049,"ortal":2050,"Ġhearts":2051,"Ġmarriage":2052,"Ġdesp":2053,"ĠClaudio":2054,"itizens":2055,"uckingham":2056,"Ġresol":2057,"MARCIUS":2058,"ĠMontague":2059,"loucester":2060,"BIONDEL":2061,"Ġbosom":2062,"BIONDELLO":2063,"Away":2064,"MON":2065,"Madam":2066,"bly":2067,"folk":2068,"iers":2069,"now":2070,"ĠThe":2071,"Ġtit":2072,"Ġten":2073,"Ġtale":2074,"Ġbound":2075,"Ġdam":2076,"Ġcut":2077,"ench":2078,"Ġye":2079,"Ġopen":2080,"rah":2081,"alm":2082,"ĠCap":2083,"Ġshort":2084,"Ġknown":2085,"ĠBuckingham":2086,"Ġseek":2087,"Ġharm":2088,"Ġcompany":2089,"Ġguilt":2090,"Ġhighness":2091,"Ġstrike":2092,"Ġattend":2093,"Ġserve":2094,"Ġmurder":2095,"ĠHastings":2096,"Farewell":2097,"HER":2098,"OP":2099,"chan":2100,"hood":2101,"Ġve":2102,"ĠHe":2103,"ĠAU":2104,"Ġag":2105,"Ġsat":2106,"Ġside":2107,"Ġwhi":2108,"Ġwatch":2109,"rest":2110,"ished":2111,"Ġfeel":2112,"Ġdish":2113,"Ġdist":2114,"ents":2115,"ander":2116,"Ġsuit":2117,"Ġloving":2118,"ONIO":2119,"Ġhonest":2120,"Ġheavens":2121,"Ġtrib":2122,"MERLE":2123,"Ġdraw":2124,"Ġvoices":2125,"Ġsomething":2126,"ANTONIO":2127,"Ġstrength":2128,"ĠAUMERLE":2129,"Marry":2130,"Pray":2131,"See":2132,"ZALO":2133,"fid":2134,"ging":2135,"Ġact":2136,"Ġsake":2137,"Ġwast":2138,"Ġwonder":2139,"Ġwidow":2140,"Ġbit":2141,"Ġcor":2142,"Ġsto":2143,"Ġstir":2144,"ĠGentleman":2145,"ĠGloucester":2146,"ĠLanc":2147,"Ġdidst":2148,"Ġgentlemen":2149,"Ġcloud":2150,"Ġwomen":2151,"ethinks":2152,"Ġenemies":2153,"GONZALO":2154,"ĠLancaster":2155,"Unt":2156,"ives":2157,"su":2158,"Ġsing":2159,"Ġmusic":2160,"rew":2161,"Ġbreat":2162,"Ġdr":2163,"Ġpra":2164,"Ġpie":2165,"Ġpale":2166,"Ġgates":2167,"oose":2168,"race":2169,"ils":2170,"ĠCamillo":2171,"Ġnext":2172,"Ġknew":2173,"Ġcoming":2174,"Ġthanks":2175,"Ġclose":2176,"Ġpleasure":2177,"Ġsouls":2178,"ianca":2179,"Ġcourse":2180,"Ġenter":2181,"Ġwithal":2182,"Ġbrave":2183,"Ġchee":2184,"ceived":2185,"Ġtitle":2186,"DIO":2187,"fter":2188,"ne":2189,"vour":2190,"you":2191,"Ġty":2192,"Ġwa":2193,"Ġbur":2194,"Ġfit":2195,"oward":2196,"Ġgar":2197,"Ġbecome":2198,"etch":2199,"etru":2200,"Ġforg":2201,"Ġweak":2202,"Ġeither":2203,"Ġlips":2204,"rust":2205,"els":2206,"Ġjest":2207,"Ġplain":2208,"AUDIO":2209,"Ġabs":2210,"Ġpret":2211,"claim":2212,"Ġgrie":2213,"CLAUDIO":2214,"Ġchange":2215,"MIONE":2216,"ĠNorfolk":2217,"CLIFFORD":2218,"Ġsuffer":2219,"Ġdeliver":2220,"HERMIONE":2221,"DA":2222,"EDWARD":2223,"LORD":2224,"Most":2225,"cher":2226,"kes":2227,"ses":2228,"ufid":2229,"ĠTh":2230,"Ġsk":2231,"Ġsame":2232,"Ġsick":2233,"Ġsign":2234,"Ġwis":2235,"Ġwall":2236,"ready":2237,"isf":2238,"Ġcast":2239,"irth":2240,"chio":2241,"Ġforb":2242,"Ġforget":2243,"oof":2244,"ries":2245,"Ġreg":2246,"urp":2247,"east":2248,"Ġven":2249,"Ġthemselves":2250,"ĠBianca":2251,"Ġworse":2252,"ĠPom":2253,"Ġtook":2254,"Ġpoison":2255,"Ġalong":2256,"Ġrich":2257,"Ġbreast":2258,"ranio":2259,"Ġconsul":2260,"RANDA":2261,"MIRANDA":2262,"twas":2263,"twere":2264,"Ġcheer":2265,"Ġpatience":2266,"Ġmerry":2267,"Ġorder":2268,"etruchio":2269,"ufidius":2270,"HN":2271,"Messenger":2272,"OHN":2273,"SA":2274,"SON":2275,"Servant":2276,"lst":2277,"oin":2278,"ting":2279,"Ġmouth":2280,"Ġwed":2281,"Ġbad":2282,"Ġbook":2283,"Ġfour":2284,"Ġdu":2285,"ĠIf":2286,"Ġgave":2287,"chm":2288,"Ġissue":2289,"ash":2290,"Ġliber":2291,"vern":2292,"Ġself":2293,"ions":2294,"rows":2295,"ally":2296,"Ġoffice":2297,"Ġalready":2298,"Being":2299,"Ġmove":2300,"Ġvirtue":2301,"Ġgiven":2302,"Ġbattle":2303,"ĠHereford":2304,"Ġmorning":2305,"Ġfurther":2306,"Make":2307,"Since":2308,"mber":2309,"nk":2310,"pes":2311,"rist":2312,"she":2313,"uous":2314,"used":2315,"Ġta":2316,"Ġac":2317,"oun":2318,"Ġwise":2319,"Ġburn":2320,"orge":2321,"Ġfrown":2322,"Ġfeast":2323,"Ġdire":2324,"esh":2325,"Ġlad":2326,"Ġpay":2327,"anus":2328,"Ġgro":2329,"ats":2330,"Ġred":2331,"Ġsoft":2332,"each":2333,"Ġsucc":2334,"icer":2335,"Ġblack":2336,"Ġgoes":2337,"Ġsworn":2338,"ĠSignior":2339,"elcome":2340,"Ġprop":2341,"Ġsons":2342,"Ġfoe":2343,"Ġext":2344,"ĠTower":2345,"Before":2346,"Ġtrou":2347,"Ġbegg":2348,"Ġbegin":2349,"Ġconsent":2350,"dden":2351,"Ġsoldiers":2352,"Ġrequest":2353,"ĠLucentio":2354,"Ġbetween":2355,"Ġquarrel":2356,"Ġsatisf":2357,"chmond":2358,"AS":2359,"Call":2360,"IR":2361,"Must":2362,"NT":2363,"Re":2364,"Sw":2365,"Such":2366,"gare":2367,"ires":2368,"ures":2369,"ung":2370,"uff":2371,"ĠFor":2372,"hem":2373,"Ġservant":2374,"Ġbar":2375,"Ġdro":2376,"Ġdark":2377,"Ġcr":2378,"Ġcase":2379,"Ġthri":2380,"aris":2381,"ots":2382,"stand":2383,"owers":2384,"irm":2385,"Ġloves":2386,"ĠCh":2387,"ends":2388,"Ġbless":2389,"empt":2390,"Ġthence":2391,"Ġworth":2392,"ĠAufidius":2393,"CATES":2394,"Ġexp":2395,"awd":2396,"Ġpresence":2397,"Ġpriv":2398,"Unless":2399,"Alas":2400,"Ġwounds":2401,"Ġdangerous":2402,"Because":2403,"garet":2404,"CATESBY":2405,"LY":2406,"oll":2407,"that":2408,"Ġsigh":2409,"Ġble":2410,"ona":2411,"onour":2412,"Ġhot":2413,"Ġgot":2414,"Ġinter":2415,"Ġund":2416,"Ġev":2417,"Ġsum":2418,"Ġneither":2419,"Ġvict":2420,"emn":2421,"ĠLond":2422,"ĠSir":2423,"ĠVols":2424,"cient":2425,"Ġwars":2426,"Ġflatter":2427,"Ġmighty":2428,"Ġrespect":2429,"Ġdread":2430,"Ġbride":2431,"Ġbrief":2432,"Ġthrone":2433,"Ġvoice":2434,"Ġemb":2435,"aptist":2436,"Ġdeny":2437,"Ġspoke":2438,"Ġwater":2439,"Ġvisit":2440,"ĠLondon":2441,"Both":2442,"BIAN":2443,"JOHN":2444,"Lest":2445,"Rome":2446,"REY":2447,"Yes":2448,"eorge":2449,"ip":2450,"iant":2451,"mand":2452,"ught":2453,"Ġest":2454,"Ġmal":2455,"Ġmortal":2456,"Ġbow":2457,"Ġbab":2458,"Ġfra":2459,"ern":2460,"Ġhur":2461,"Ġtown":2462,"Ġoften":2463,"Ġhaving":2464,"right":2465,"ided":2466,"Ġsudden":2467,"rum":2468,"Ġancient":2469,"Ġspeech":2470,"Ġvow":2471,"ĠGeorge":2472,"Ġloved":2473,"Ġkings":2474,"ĠBaptist":2475,"Ġworship":2476,"LIA":2477,"ĠParis":2478,"Ġsafe":2479,"ired":2480,"ainted":2481,"BAL":2482,"ĠMargaret":2483,"Ġprincely":2484,"BRA":2485,"Ġchamber":2486,"Ġseems":2487,"bey":2488,"Ġbuy":2489,"Ġdeeds":2490,"Whom":2491,"VERS":2492,"ĠRichmond":2493,"Ġbitter":2494,"BIANCA":2495,"BOW":2496,"Welcome":2497,"king":2498,"ls":2499,"lish":2500,"mb":2501,"rt":2502,"sp":2503,"ura":2504,"ĠThou":2505,"ĠThis":2506,"Ġfres":2507,"Ġfetch":2508,"Ġcol":2509,"Ġcross":2510,"Ġcoward":2511,"essed":2512,"Ġlim":2513,"Ġpen":2514,"otion":2515,"ated":2516,"urch":2517,"Ġknock":2518,"antage":2519,"oney":2520,"Ġprot":2521,"ĠGAU":2522,"ĠLady":2523,"ĠSaint":2524,"ĠServant":2525,"Ġkingdom":2526,"ĠPl":2527,"Ġsac":2528,"ELBOW":2529,"Ġheads":2530,"Ġscorn":2531,"Ġrage":2532,"Ġappear":2533,"Ġlead":2534,"Ġwitness":2535,"RIVERS":2536,"Ġpatient":2537,"Ġpromise":2538,"Ġlament":2539,"Ġvaliant":2540,"ĠIsab":2541,"Speak":2542,"Ġsuccess":2543,"ĠBaptista":2544,"ĠGAUNT":2545,"Bes":2546,"Ere":2547,"GUE":2548,"Hold":2549,"TY":2550,"cy":2551,"coun":2552,"nown":2553,"sper":2554,"will":2555,"xford":2556,"ĠKING":2557,"Ġign":2558,"Ġaction":2559,"Ġbro":2560,"Ġbawd":2561,"ities":2562,"Ġcle":2563,"Ġcreat":2564,"Ġcap":2565,"Ġlack":2566,"Ġthrow":2567,"Ġow":2568,"Ġopp":2569,"Ġgall":2570,"Ġforward":2571,"Ġeat":2572,"Ġkins":2573,"Their":2574,"iff":2575,"Ġang":2576,"Ġviol":2577,"antag":2578,"Ġprin":2579,"Ġprithee":2580,"ĠMy":2581,"Ġwash":2582,"ortens":2583,"aken":2584,"ĠPetruchio":2585,"Ġoffer":2586,"Ġleast":2587,"Ġslave":2588,"Ġflesh":2589,"ĠTranio":2590,"Ġprepare":2591,"Ġprayers":2592,"then":2593,"Ġappro":2594,"TAGUE":2595,"Ġtriump":2596,"Ġmoon":2597,"Ġcompl":2598,"itted":2599,"Ġtribunes":2600,"Ġdrink":2601,"ĠChrist":2602,"Romeo":2603,"ortensio":2604,"Yea":2605,"bit":2606,"but":2607,"ees":2608,"joy":2609,"ler":2610,"oor":2611,"ohem":2612,"vest":2613,"Ġid":2614,"Ġsur":2615,"Ġmid":2616,"ines":2617,"Ġfie":2618,"Ġdest":2619,"Ġnay":2620,"Ġthither":2621,"Ġhide":2622,"athar":2623,"Ġbeast":2624,"ley":2625,"Ġreb":2626,"raw":2627,"als":2628,"alth":2629,"cks":2630,"thumber":2631,"host":2632,"asters":2633,"feit":2634,"aked":2635,"pey":2636,"Ġalmost":2637,"ully":2638,"Ġscar":2639,"Ġsmall":2640,"Ġpresently":2641,"Ġfaults":2642,"Ġdepart":2643,"Ġsecret":2644,"Ġsubjects":2645,"Ġdefend":2646,"Ġpossess":2647,"atharina":2648,"thumberland":2649,"Con":2650,"DI":2651,"GI":2652,"IEL":2653,"Pl":2654,"VIR":2655,"Whi":2656,"aul":2657,"hind":2658,"ying":2659,"Ġtear":2660,"Ġwert":2661,"rey":2662,"Ġben":2663,"Ġbase":2664,"Ġbirth":2665,"Ġfill":2666,"Ġfond":2667,"Ġlab":2668,"arl":2669,"Ġpain":2670,"inger":2671,"Ġbec":2672,"Ġform":2673,"Ġeas":2674,"Ġstru":2675,"Ġliving":2676,"rue":2677,"though":2678,"Ġgoodly":2679,"Ġwhence":2680,"ĠGREY":2681,"Ġusurp":2682,"cience":2683,"Ġtrump":2684,"Ġhearing":2685,"Ġslaughter":2686,"Ġperform":2687,"Ġwrit":2688,"perate":2689,"ledge":2690,"Stay":2691,"Stand":2692,"Ġchance":2693,"PERDI":2694,"Ġvirtuous":2695,"Ġquickly":2696,"MONTAGUE":2697,"Ġdamn":2698,"ural":2699,"ohemia":2700,"GILIA":2701,"VIRGILIA":2702,"PERDITA":2703,"Ab":2704,"Doth":2705,"Peace":2706,"SET":2707,"SLY":2708,"ding":2709,"eem":2710,"gg":2711,"iest":2712,"over":2713,"oss":2714,"ror":2715,"your":2716,"ze":2717,"Ġut":2718,"Ġtor":2719,"Ġay":2720,"Ġmatch":2721,"Ġmild":2722,"Ġwild":2723,"read":2724,"isure":2725,"Ġfier":2726,"ony":2727,"Ġca":2728,"Ġcertain":2729,"arn":2730,"Ġpu":2731,"Ġpit":2732,"ingly":2733,"sem":2734,"Ġinj":2735,"Ġins":2736,"Ġinno":2737,"eds":2738,"edant":2739,"Ġur":2740,"Ġshad":2741,"Think":2742,"Ġknee":2743,"Ġkneel":2744,"astard":2745,"ustom":2746,"Ġblows":2747,"ĠSt":2748,"ĠOxford":2749,"Ġquiet":2750,"Ġproceed":2751,"ĠPaul":2752,"Ġhadst":2753,"Ġoffence":2754,"Ġadm":2755,"Ġpleas":2756,"force":2757,"Ġaffection":2758,"Ġslew":2759,"IANA":2760,"Ġlawful":2761,"Ġglad":2762,"bling":2763,"Ġweeping":2764,"MARIANA":2765,"Ġsoldier":2766,"Ġawhile":2767,"Ġdeserved":2768,"Ġexecution":2769,"ĠCoriolanus":2770,"Ġguilty":2771,"Ġpretty":2772,"ĠPompey":2773,"Ġangry":2774,"Fa":2775,"Mar":2776,"Master":2777,"PAR":2778,"RA":2779,"VINCENTIO":2780,"awn":2781,"dge":2782,"fully":2783,"gue":2784,"ked":2785,"med":2786,"ual":2787,"vol":2788,"zen":2789,"Ġap":2790,"Ġshi":2791,"Ġsho":2792,"Ġmed":2793,"Ġmod":2794,"Ġwalk":2795,"Ġfam":2796,"Ġfled":2797,"eness":2798,"Ġyear":2799,"Ġob":2800,"Ġocc":2801,"Ġhap":2802,"Ġmeasure":2803,"Ġforsw":2804,"adua":2805,"Ġreign":2806,"Ġdoom":2807,"ames":2808,"Ġnob":2809,"rupt":2810,"Ġourselves":2811,"Ġfavour":2812,"Ġneck":2813,"Ġshows":2814,"ended":2815,"Ġblow":2816,"Ġgovern":2817,"Ġwouldst":2818,"Ġletters":2819,"Ġunc":2820,"Ġunk":2821,"Ġworst":2822,"Ġspeaks":2823,"Ġmarch":2824,"ighb":2825,"ĠKatharina":2826,"Ġgreater":2827,"Ġleisure":2828,"osition":2829,"Ġtreason":2830,"ĠEnglish":2831,"Ġbanishment":2832,"Ġsense":2833,"remio":2834,"Ġcondemn":2835,"ointed":2836,"Ġdishonour":2837,"Ġclouds":2838,"Ġbreathe":2839,"Ġforbid":2840,"Ġliberty":2841,"Ġladies":2842,"Ġtrouble":2843,"rumio":2844,"ĠIsabel":2845,"counter":2846,"antagen":2847,"PARIS":2848,":'":2849,"Int":2850,"Out":2851,"Too":2852,"While":2853,"aves":2854,"acle":2855,"dle":2856,"house":2857,"rim":2858,"rous":2859,"ĠX":2860,"Ġsort":2861,"Ġmorrow":2862,"Ġwon":2863,"Ġdry":2864,"Ġcru":2865,"Ġlan":2866,"Ġlist":2867,"Ġlaid":2868,"aring":2869,"Ġobey":2870,"Ġheld":2871,"vel":2872,"ster":2873,"ators":2874,"Ġbehind":2875,"set":2876,"Ġnote":2877,"Ġstor":2878,"ider":2879,"Ġref":2880,"Ġlived":2881,"urs":2882,"Ġaside":2883,"Ġdog":2884,"Ġnoise":2885,"Ġseat":2886,"iles":2887,"Ġvain":2888,"ĠMerc":2889,"ĠBohemia":2890,"Ġletter":2891,"Ġjoin":2892,"ounds":2893,"Ġprosper":2894,"Ġrough":2895,"Ġabove":2896,"ize":2897,"Ġremain":2898,"Ġlonger":2899,"Ġwomb":2900,"Ġneeds":2901,"Ġchoose":2902,"Ġchurch":2903,"Ġprisoner":2904,"Ġsecond":2905,"Ġtemp":2906,"Ġgolden":2907,"undred":2908,"Ġdispatch":2909,"Ġpiece":2910,"Ġfresh":2911,"Ġignor":2912,"Ġbecause":2913,"antagenet":2914,"!--":2915,"Am":2916,"De":2917,"DOR":2918,"EW":2919,"En":2920,"Hark":2921,"LAR":2922,"Pr":2923,"Su":2924,"TIUS":2925,"bb":2926,"ban":2927,"cal":2928,"ffect":2929,"him":2930,"iled":2931,"ny":2932,"ts":2933,"under":2934,"ulet":2935,"ĠNow":2936,"Ġtent":2937,"Ġsch":2938,"Ġsus":2939,"Ġsaint":2940,"Ġmut":2941,"inius":2942,"Ġbig":2943,"Ġbroke":2944,"Ġbones":2945,"Ġfat":2946,"Ġfine":2947,"Ġfive":2948,"erle":2949,"itors":2950,"Ġdrown":2951,"Ġcitizens":2952,"Ġlen":2953,"Ġlow":2954,"Ġlust":2955,"Ġlau":2956,"Ġthreat":2957,"Ġhundred":2958,"Ġobed":2959,"Ġpet":2960,"vey":2961,"ang":2962,"Ġoft":2963,"Ġbend":2964,"Ġbell":2965,"Ġind":2966,"ceit":2967,"lease":2968,"ety":2969,"Ġeffect":2970,"Ġyourselves":2971,"Ġstood":2972,"Ġstain":2973,"Ġsteel":2974,"Ġsteal":2975,"ords":2976,"asion":2977,"Ġrevere":2978,"Ġsole":2979,"ARIEL":2980,"ease":2981,"Ġknees":2982,"ular":2983,"icious":2984,"Ġconqu":2985,"ieu":2986,"Ġblessed":2987,"ĠGaunt":2988,"ĠGremio":2989,"Ġshed":2990,"ĠLet":2991,"ĠLEW":2992,"Ġswift":2993,"ĠHortensio":2994,"Ġgrand":2995,"Ġproclaim":2996,"ĠPr":2997,"ĠPadua":2998,"Ġsaf":2999,"ume":3000,"ĠWatch":3001,"istress":3002,"Ġexc":3003,"Ġdesperate":3004,"Ġslander":3005,"Ġprecious":3006,"Ġbears":3007,"Ġappare":3008,"Ġconscience":3009,"Ġentertain":3010,"ontent":3011,"Ġpride":3012,"Sirrah":3013,"uthor":3014,"Ġglory":3015,"Ġdouble":3016,"atesby":3017,"Ġwoes":3018,"posed":3019,"Ġlands":3020,"Ġsentence":3021,"ĠNorthumberland":3022,"Ġdrunk":3023,"Ġtowards":3024,"ĠCapulet":3025,"Unto":3026,"Ġforgot":3027,"Ġwisdom":3028,"Ġvenge":3029,"Sweet":3030,"Ġvictory":3031,"Ġkinsman":3032,"ĠXI":3033,"LARTIUS":3034,"ĠLEWIS":3035,"ĠWatchman":3036,";'":3037,"Bel":3038,"Could":3039,"Hear":3040,"MP":3041,"Me":3042,"Pardon":3043,"Pedant":3044,"RTIS":3045,"bray":3046,"den":3047,"gment":3048,"hn":3049,"iance":3050,"ohn":3051,"pir":3052,"ude":3053,"vail":3054,"which":3055,"head":3056,"Ġauthor":3057,"Ġsour":3058,"Ġmount":3059,"Ġmethinks":3060,"Ġmoney":3061,"Ġmasters":3062,"rent":3063,"rence":3064,"Ġfe":3065,"Ġfru":3066,"Ġfought":3067,"Ġfew":3068,"Ġdied":3069,"Ġdeter":3070,"Ġcapt":3071,"Ġpun":3072,"owbray":3073,"Ġhair":3074,"irl":3075,"Ġeld":3076,"Ġstud":3077,"estion":3078,"Ġdoing":3079,"iful":3080,"Ġseal":3081,"ility":3082,"ĠCa":3083,"cted":3084,"ETER":3085,"Ġmanner":3086,"ĠEarl":3087,"ĠGo":3088,"ĠGrumio":3089,"Ġknowledge":3090,"umerle":3091,"Ġenjoy":3092,"Ġran":3093,"ĠAnt":3094,"Within":3095,"Ġalive":3096,"Ġabro":3097,"ways":3098,"Ġhonours":3099,"Ġwarm":3100,"ations":3101,"Ġdeadly":3102,"Ġkept":3103,"Ġcontr":3104,"Ġcontin":3105,"Ġarmy":3106,"Ġlordship":3107,"Ġguest":3108,"Ġguess":3109,"CURTIS":3110,"Ġpromised":3111,"comes":3112,"eeper":3113,"Ġwretched":3114,"Ġdespair":3115,"Ġcheeks":3116,"SAMP":3117,"Ġlabour":3118,"Ġstruck":3119,"Faith":3120,"Ġdeterm":3121,"SAMPSON":3122,"'re":3123,":--":3124,"BU":3125,"Br":3126,"Citizens":3127,"Dis":3128,"EX":3129,"Either":3130,"IGON":3131,"bury":3132,"ey":3133,"good":3134,"mit":3135,"take":3136,"Ġtry":3137,"Ġteach":3138,"Ġaid":3139,"ounce":3140,"Ġsim":3141,"reed":3142,"Ġbastard":3143,"orious":3144,"llow":3145,"ited":3146,"Ġdance":3147,"Ġcorn":3148,"Ġcred":3149,"Ġcried":3150,"Ġpal":3151,"Ġhel":3152,"Ġhealth":3153,"stant":3154,"utio":3155,"ourn":3156,"Ġliest":3157,"Ġdeg":3158,"Ġdemand":3159,"Ġshake":3160,"eaven":3161,"ament":3162,"Ġsever":3163,"Ġherself":3164,"Ġspent":3165,"ĠMaster":3166,"ĠMowbray":3167,"Ġwhether":3168,"Ġamong":3169,"Ġshepherd":3170,"othing":3171,"ppy":3172,"Ġunp":3173,"Ġunw":3174,"ĠHow":3175,"Ġquoth":3176,"Ġprov":3177,"umb":3178,"Ġplant":3179,"ĠWill":3180,"ĠWhy":3181,"osed":3182,"Ġencounter":3183,"Ġrot":3184,"Ġofficer":3185,"Ġbrothers":3186,"Ġearly":3187,"Ġhonourable":3188,"Ġflowers":3189,"LEY":3190,"Ġcalls":3191,"Ġwhite":3192,"Ġremed":3193,"Ġmoved":3194,"Ġaccount":3195,"ewis":3196,"Ġkindred":3197,"Ġpriest":3198,"Ġguard":3199,"Ġcharity":3200,"Ġunderstand":3201,"Ġfoolish":3202,"Ġhumble":3203,"Ġcounter":3204,"Ġdreams":3205,"Ġgreet":3206,"ANTIGON":3207,"Ġvalour":3208,"Ġjudge":3209,"Ġwretch":3210,"Ġbeggar":3211,"Ġsummer":3212,"Ġtriumph":3213,"Ġcruel":3214,"BURY":3215,"ANTIGONUS":3216,"Bet":3217,"Fear":3218,"Lo":3219,"Mine":3220,"Made":3221,"TCLIFF":3222,"True":3223,"fall":3224,"mon":3225,"rison":3226,"ĠAnd":3227,"heart":3228,"ining":3229,"Ġwail":3230,"orthy":3231,"Ġfart":3232,"Ġfaint":3233,"ites":3234,"Ġdin":3235,"Ġdwell":3236,"Ġyea":3237,"Ġthro":3238,"Ġhung":3239,"Ġpack":3240,"Ġga":3241,"Ġgent":3242,"leep":3243,"Ġforce":3244,"Ġweary":3245,"Ġstone":3246,"Ġstars":3247,"ask":3248,"roy":3249,"Ġbutcher":3250,"ify":3251,"Ġseven":3252,"Ġanon":3253,"Ġours":3254,"ĠCom":3255,"Ġneighb":3256,"ĠRoman":3257,"Ġvie":3258,"ief":3259,"Ġblame":3260,"Ġgoing":3261,"ĠLewis":3262,"Ġthereof":3263,"Ġunf":3264,"Ġuns":3265,"Ġenvy":3266,"Ġrise":3267,"Ġthinks":3268,"Ġrid":3269,"Ġparty":3270,"Ġadd":3271,"Ġothers":3272,"ĠJohn":3273,"ians":3274,"Ġkindness":3275,"Ġchast":3276,"Ġbids":3277,"Ġbright":3278,"Ġglass":3279,"Ġmiser":3280,"Ġcrave":3281,"Twas":3282,"Ġwinter":3283,"Ġmonth":3284,"Ġminister":3285,"Ġwalls":3286,"Ġextrem":3287,"Ġsatisfied":3288,"Ġprivate":3289,"ĠVolsces":3290,"Ġidle":3291,"Ġscarce":3292,"Ġbenef":3293,"RATCLIFF":3294,"Ġlaugh":3295,"Ġvengeance":3296,"Ġabroad":3297,"Ġview":3298,"After":3299,"Bid":3300,"BIS":3301,"Fie":3302,"Gentle":3303,"HOP":3304,"Ne":3305,"Never":3306,"Signior":3307,"Under":3308,"aff":3309,"gra":3310,"ners":3311,"ope":3312,"shall":3313,"ued":3314,"vious":3315,"whe":3316,"woman":3317,"Ġver":3318,"incentio":3319,"Ġwre":3320,"Ġwench":3321,"rees":3322,"have":3323,"orous":3324,"Ġfirm":3325,"Ġcir":3326,"Ġcorse":3327,"enes":3328,"Ġlest":3329,"Ġhol":3330,"vell":3331,"ott":3332,"omas":3333,"att":3334,"ating":3335,"Ġincl":3336,"cell":3337,"utland":3338,"Ġformer":3339,"Ġease":3340,"riar":3341,"ident":3342,"Ġrel":3343,"Ġreceived":3344,"Ġdeal":3345,"amp":3346,"Ġsport":3347,"Ġfaire":3348,"ANLEY":3349,"ĠRutland":3350,"Ġvile":3351,"Ġshrew":3352,"antua":3353,"ĠMantua":3354,"Ġconcl":3355,"Ġconvey":3356,"Ġgod":3357,"allow":3358,"ĠBarn":3359,"Ġarri":3360,"Ġunb":3361,"ĠHer":3362,"ĠVincentio":3363,"Ġmayst":3364,"eless":3365,"Ġquite":3366,"Ġprovost":3367,"IST":3368,"Ġtruly":3369,"Ġdism":3370,"Off":3371,"Ġfoes":3372,"Ġroot":3373,"Ġwherefore":3374,"Ġflower":3375,"Ġimag":3376,"Ġtrial":3377,"ailor":3378,"Ġsmo":3379,"Ġtrem":3380,"Ġfellows":3381,"rench":3382,"Ġchanged":3383,"Ġcover":3384,"Ġhumour":3385,"Ġboot":3386,"Ġswords":3387,"Ġdeputy":3388,"Ġcondition":3389,"Ġjudgment":3390,"change":3391,"Ġtyrant":3392,"Ġacqu":3393,"Ġevil":3394,"BALT":3395,"TYBALT":3396,"Whilst":3397,"Ġeasy":3398,"ĠMercutio":3399,"Ġschool":3400,"Ġexcuse":3401,"Ġfruit":3402,"BISHOP":3403,"'?":3404,"AL":3405,"Bl":3406,"Des":3407,"Ex":3408,"KEN":3409,"Methinks":3410,"Put":3411,"Tut":3412,"ault":3413,"after":3414,"con":3415,"ek":3416,"ead":3417,"ered":3418,"his":3419,"oot":3420,"pin":3421,"roth":3422,"rate":3423,"shi":3424,"ta":3425,"vish":3426,"Ġtaken":3427,"Ġwither":3428,"Ġba":3429,"Ġbrow":3430,"Ġbite":3431,"Ġbrows":3432,"Ġfain":3433,"Ġfeed":3434,"erona":3435,"Ġdust":3436,"Ġdull":3437,"enance":3438,"Ġthunder":3439,"Ġpains":3440,"anley":3441,"Ġgown":3442,"Ġgrown":3443,"Ġgift":3444,"Ġghost":3445,"Ġgirl":3446,"Ġbeha":3447,"Ġmeat":3448,"rift":3449,"Ġstab":3450,"Ġstoop":3451,"idings":3452,"ract":3453,"arden":3454,"Ġspe":3455,"Ġspake":3456,"Ġspring":3457,"ilia":3458,"ĠCatesby":3459,"Ġknave":3460,"AND":3461,"Ġvice":3462,"aste":3463,"Ġshore":3464,"Ġproof":3465,"Ġblest":3466,"Ġblind":3467,"ement":3468,"Ġsirrah":3469,"Ġunl":3470,"Ġquestion":3471,"Ġjoint":3472,"cians":3473,"ĠWe":3474,"ĠAl":3475,"ĠAumerle":3476,"Ġhonesty":3477,"ursed":3478,"Ġleaves":3479,"Ġtwice":3480,"aper":3481,"ĠKeeper":3482,"Ġprevent":3483,"OMAS":3484,"there":3485,"ĠMars":3486,"Ġrepent":3487,"Ġtraitors":3488,"twixt":3489,"Ġimport":3490,"Ġwrongs":3491,"Ġburied":3492,"ealous":3493,"place":3494,"Ġreasons":3495,"Alack":3496,"Ġsenate":3497,"Ġgreen":3498,"Ġaffair":3499,"acher":3500,"Ġchoice":3501,"azed":3502,"Ġdivine":3503,"ĠCorioli":3504,"Ġwhilst":3505,"Ġstop":3506,"Ġtyran":3507,"Ġprophe":3508,"Ġembrace":3509,"Ġmalice":3510,"BRAKEN":3511,"ĠPlantagenet":3512,"Ġsacred":3513,"Ġfiery":3514,"Ġinnocent":3515,"ĠPaulina":3516,"Ġleng":3517,"ĠPrince":3518,"Ġsafety":3519,"ĠCominius":3520,"BRAKENBURY":3521,"?'":3522,"Ad":3523,"DER":3524,"DON":3525,"Edward":3526,"GOR":3527,"Hence":3528,"Ind":3529,"MIST":3530,"Once":3531,"Richard":3532,"RESS":3533,"cha":3534,"draw":3535,"eld":3536,"go":3537,"mn":3538,"my":3539,"more":3540,"nat":3541,"op":3542,"oly":3543,"oard":3544,"pet":3545,"port":3546,"poll":3547,"sic":3548,"would":3549,"Ġed":3550,"ĠTo":3551,"Ġavo":3552,"Ġsits":3553,"inous":3554,"Ġwag":3555,"Ġwings":3556,"rehe":3557,"Ġbark":3558,"orry":3559,"Ġfury":3560,"Ġfinger":3561,"erset":3562,"itol":3563,"Ġcustom":3564,"enen":3565,"anch":3566,"omerset":3567,"Ġgross":3568,"Ġgarden":3569,"Ġinform":3570,"edious":3571,"Ġused":3572,"Ġweeds":3573,"Ġele":3574,"Ġeag":3575,"Ġstones":3576,"Ġdec":3577,"Ġdoor":3578,"Ġnose":3579,"Ġallow":3580,"think":3581,"Ġanger":3582,"ardine":3583,"Ġloath":3584,"Ġloyal":3585,"ellow":3586,"Ġfares":3587,"Ġnecess":3588,"Ġknight":3589,"ctise":3590,"Ġshr":3591,"Ġoracle":3592,"ĠOVER":3593,"Myself":3594,"hysic":3595,"Ġmayor":3596,"elve":3597,"Ġhollow":3598,"Ġsail":3599,"Ġplague":3600,"unning":3601,"Ġround":3602,"Ġfright":3603,"icked":3604,"Without":3605,"Ġalways":3606,"Ġrob":3607,"Ġrock":3608,"Ġwherein":3609,"Ġdesign":3610,"Wherein":3611,"aughters":3612,"Ġadieu":3613,"Ġcommend":3614,"Ġclaim":3615,"Ġprevail":3616,"Ġprayer":3617,"PETER":3618,"Ġplead":3619,"Ġperceive":3620,"Ġtroth":3621,"Ġrude":3622,"Ġtongues":3623,"Ġsubst":3624,"Ġsmile":3625,"Ġimprison":3626,"Ġcares":3627,"GREGOR":3628,"Ġdrawn":3629,"Ġempt":3630,"Ġwanton":3631,"Ġassist":3632,"unts":3633,"Ġtempt":3634,"Ġdeserve":3635,"Ġdelight":3636,"ĠCapitol":3637,"Ġpractise":3638,"Ġcheek":3639,"Ġabsence":3640,"ĠThomas":3641,"Ġdrop":3642,"Ġcreature":3643,"Ġtrumpets":3644,"Ġutter":3645,"Ġlangu":3646,"Ġignorant":3647,"Brother":3648,"Ġrotten":3649,"Ġremedy":3650,"Ġcirc":3651,"ĠBarnardine":3652,"DERBY":3653,"DONE":3654,"Indeed":3655,"MISTRESS":3656,"enenius":3657,"ĠOVERDONE":3658,"GREGORY":3659,"Art":3660,"CH":3661,"Dost":3662,"FORD":3663,"OX":3664,"Poor":3665,"Res":3666,"RICH":3667,"SOM":3668,"Turn":3669,"VAL":3670,"act":3671,"dy":3672,"eous":3673,"mion":3674,"sing":3675,"thi":3676,"what":3677,"yard":3678,"Ġes":3679,"ĠWhere":3680,"Ġtune":3681,"Ġtidings":3682,"Ġtedious":3683,"held":3684,"Ġaim":3685,"Ġaught":3686,"Ġship":3687,"Ġsens":3688,"Ġwent":3689,"Ġwont":3690,"Ġwives":3691,"Ġwicked":3692,"haps":3693,"isa":3694,"ises":3695,"onounce":3696,"Ġdur":3697,"Ġcre":3698,"Ġcell":3699,"Ġcure":3700,"Ġcarry":3701,"Ġcries":3702,"esy":3703,"Ġnumber":3704,"Ġlar":3705,"Ġloud":3706,"Ġthrust":3707,"Ġhit":3708,"Ġhid":3709,"Ġpil":3710,"Ġpair":3711,"othe":3712,"Ġbecomes":3713,"cend":3714,"utes":3715,"iment":3716,"rious":3717,"Ġstar":3718,"Ġstat":3719,"Ġsteed":3720,"ashi":3721,"Ġreceive":3722,"Ġasleep":3723,"Ġdew":3724,"Ġdeceived":3725,"Ġdeposed":3726,"Ġshar":3727,"this":3728,"ards":3729,"hant":3730,"Ġvantage":3731,"ERIA":3732,"ERSET":3733,"ĠMusic":3734,"Ġconj":3735,"ongs":3736,"ĠGrey":3737,"Ġsheep":3738,"Ġtherein":3739,"ĠSic":3740,"ĠSomerset":3741,"ĠVerona":3742,"Ġjealous":3743,"Ġshouldst":3744,"Ġproper":3745,"Ġras":3746,"Ġoutward":3747,"Ġwhole":3748,"Ġoffend":3749,"ĠYour":3750,"Ġalas":3751,"Ġheav":3752,"Ġearn":3753,"eeth":3754,"Ġmeaning":3755,"aced":3756,"Ġchief":3757,"Ġbegins":3758,"ĠJove":3759,"Ġruin":3760,"loved":3761,"ission":3762,"Ġresign":3763,"Ġfollows":3764,"Ġtread":3765,"Ġtreacher":3766,"ethought":3767,"Ġbanished":3768,"Ġpassing":3769,"Ġwoful":3770,"Ġdevise":3771,"Ġfollowers":3772,"Ġfools":3773,"Ġmaids":3774,"Show":3775,"Ġadvise":3776,"Ġgives":3777,"itting":3778,"Ġrememb":3779,"Ġawake":3780,"Ġborne":3781,"Ġsupper":3782,"Ġlamb":3783,"Ġcondu":3784,"aze":3785,"Ġsilence":3786,"Ġpossible":3787,"Having":3788,"Ġprofess":3789,"Ġdespite":3790,"MOND":3791,"Ġgarments":3792,"Ġcastle":3793,"Ġthrive":3794,"Ġexpress":3795,"Ġundone":3796,"Ġdreadful":3797,"Ġbabe":3798,"Ġprotect":3799,"Besides":3800,"Ġbroken":3801,"Ġviolent":3802,"ĠChristian":3803,"Ġpubl":3804,"Ġoccasion":3805,"Ġnobles":3806,"Into":3807,"ursday":3808,"Ġfatal":3809,"Ġbelly":3810,"Ġauthority":3811,"Ġsimple":3812,"Ġfarther":3813,"Ġthroat":3814,"Ġbenefit":3815,"pinion":3816,"Ġaffairs":3817,"pollo":3818,"OXFORD":3819,"RICHMOND":3820,"SOMERSET":3821,"VALERIA":3822,"mione":3823,"AMIL":3824,"BUS":3825,"Great":3826,"HY":3827,"Hast":3828,"LIUS":3829,"MOP":3830,"MAMIL":3831,"Per":3832,"Tybalt":3833,"Tailor":3834,"Very":3835,"app":3836,"cing":3837,"can":3838,"eg":3839,"fl":3840,"father":3841,"gle":3842,"iond":3843,"oat":3844,"pr":3845,"ron":3846,"son":3847,"ub":3848,"Ġer":3849,"Ġir":3850,"ĠThere":3851,"Ġtort":3852,"Ġtaste":3853,"Ġsan":3854,"Ġsix":3855,"Ġsorry":3856,"Ġwine":3857,"Ġwander":3858,"Ġband":3859,"Ġbond":3860,"erved":3861,"itude":3862,"Ġdet":3863,"Ġdue":3864,"Ġcal":3865,"Ġcam":3866,"Ġcunning":3867,"ene":3868,"enn":3869,"Ġnine":3870,"Ġnames":3871,"Ġlend":3872,"arch":3873,"Ġtop":3874,"Ġpin":3875,"Ġpawn":3876,"Ġpaper":3877,"Ġphysic":3878,"Ġgain":3879,"Ġgage":3880,"Ġbelike":3881,"Ġbeheld":3882,"Ġinfect":3883,"ldom":3884,"eding":3885,"utation":3886,"Ġweight":3887,"Ġweap":3888,"ills":3889,"Ġequ":3890,"enture":3891,"Ġstore":3892,"Ġstep":3893,"Ġstock":3894,"Ġstuff":3895,"Ġrenown":3896,"rand":3897,"Ġlip":3898,"Ġdeare":3899,"room":3900,"eave":3901,"usion":3902,"iffe":3903,"Ġseas":3904,"Ġsup":3905,"run":3906,"Ġange":3907,"Ġlod":3908,"ello":3909,"Ġspend":3910,"Ġspare":3911,"hop":3912,"Ġvan":3913,"ouses":3914,"Ġshut":3915,"ustice":3916,"ĠMOW":3917,"ĠMenenius":3918,"olix":3919,"Ġsway":3920,"Ġbrook":3921,"Ġkingly":3922,"ĠBona":3923,"Ġunnat":3924,"ĠHarry":3925,"Ġquit":3926,"imely":3927,"Ġenvious":3928,"Ġrash":3929,"Ġdisd":3930,"ABHOR":3931,"Ġroom":3932,"Ġexile":3933,"Ġexcell":3934,"Ġdesert":3935,"Ġgentlewoman":3936,"Ġflight":3937,"Ġtwelve":3938,"Ġparts":3939,"Ġprey":3940,"THOMAS":3941,"Ġperil":3942,"Ġperish":3943,"Ġtrans":3944,"iteous":3945,"ĠFriar":3946,"Ġwhither":3947,"swain":3948,"Ġuntil":3949,"Ġaffect":3950,"Ġlean":3951,"Ġlegs":3952,"orses":3953,"Ġkeeps":3954,"Ġaccus":3955,"STANLEY":3956,"Ġprize":3957,"Ġpursu":3958,"Ġchair":3959,"Ġcountenance":3960,"Ġpleased":3961,"ounty":3962,"Ġhumbly":3963,"Ġcourtesy":3964,"Ġadvantage":3965,"Ġcurst":3966,"ploy":3967,"Ġspirits":3968,"Two":3969,"Ġintend":3970,"Ġdenied":3971,"ancy":3972,"Ġdisposition":3973,"Ġbetwixt":3974,"Ġsilver":3975,"Ġdelay":3976,"Ġresolve":3977,"ĠThursday":3978,"Ġwedding":3979,"Ġsighs":3980,"Ġhurt":3981,"BRAY":3982,"Ġcolour":3983,"Ġclear":3984,"Ġowe":3985,"Ġprepared":3986,"Ġdamned":3987,"Ġshadow":3988,"Ġpleasant":3989,"Ġforsworn":3990,"Ġstorm":3991,"Death":3992,"Ġthreaten":3993,"Ġconquer":3994,"Ġpunish":3995,"ĠCaius":3996,"Ġcontrary":3997,"EXETER":3998,"Ġpalace":3999,"Ġdinner":4000,"Ġneighbour":4001,"Ġmiserable":4002,"Ġspeci":4003,"Ġempty":4004,"ĠMusician":4005,"BUSHY":4006,"MOPSA":4007,"MAMILLIUS":4008,"iondello":4009,"Ġsanct":4010,"ĠMOWBRAY":4011,"olixenes":4012,"ABHORSON":4013,"CY":4014,"Cousin":4015,"Ed":4016,"Know":4017,"None":4018,"Nothing":4019,"Pre":4020,"Ret":4021,"Right":4022,"Rem":4023,"Rep":4024,"Sc":4025,"Sha":4026,"Widow":4027,"bow":4028,"born":4029,"grace":4030,"hor":4031,"hore":4032,"lar":4033,"mity":4034,"oc":4035,"oke":4036,"par":4037,"ping":4038,"pic":4039,"pass":4040,"tune":4041,"urious":4042,"we":4043,"wise":4044,"yond":4045,"ĠWhen":4046,"Ġtut":4047,"Ġtable":4048,"Ġscept":4049,"Ġmiss":4050,"Ġmurderer":4051,"Ġmaking":4052,"Ġmotion":4053,"Ġmourn":4054,"Ġwot":4055,"Ġwood":4056,"Ġwol":4057,"Ġwond":4058,"rease":4059,"Ġbas":4060,"Ġbare":4061,"Ġball":4062,"Ġbud":4063,"ising":4064,"Ġfle":4065,"Ġfro":4066,"Ġfee":4067,"Ġfashi":4068,"erve":4069,"Ġdi":4070,"Ġdign":4071,"Ġdies":4072,"Ġdag":4073,"Ġdaughters":4074,"Ġcens":4075,"Ġcup":4076,"Ġcalm":4077,"ency":4078,"Ġnaked":4079,"Ġyonder":4080,"Ġopinion":4081,"Ġpure":4082,"Ġport":4083,"Ġpainted":4084,"Ġpiteous":4085,"Ġheed":4086,"ote":4087,"ane":4088,"Ġgate":4089,"Ġbew":4090,"Ġbeloved":4091,"sequ":4092,"irg":4093,"Ġmend":4094,"ourish":4095,"Ġweigh":4096,"rib":4097,"Ġstory":4098,"Ġreward":4099,"urance":4100,"Ġdebt":4101,"Ġones":4102,"ARCH":4103,"amed":4104,"Ġseest":4105,"Three":4106,"ruly":4107,"thou":4108,"Ġfail":4109,"ERCY":4110,"que":4111,"Ġgoodness":4112,"Ġpronounce":4113,"Ġcomple":4114,"ĠMessenger":4115,"Ġamb":4116,"Ġamen":4117,"outs":4118,"oler":4119,"Ġhatred":4120,"Ġtheirs":4121,"ĠBiondello":4122,"Ġarg":4123,"igence":4124,"Ġquench":4125,"Ġhopes":4126,"cio":4127,"cian":4128,"Ġseeing":4129,"ĠPro":4130,"ĠPeter":4131,"ĠPisa":4132,"ĠPolixenes":4133,"ĠPERCY":4134,"umble":4135,"Ġplot":4136,"Ġdiss":4137,"Ġexpect":4138,"Ġslow":4139,"Ġado":4140,"THAS":4141,"ĠDid":4142,"Ġperfect":4143,"Ġperpet":4144,"Ġwrath":4145,"Thanks":4146,"lesome":4147,"ĠFl":4148,"Ġremains":4149,"Ġcrowns":4150,"Ġhark":4151,"Ġcourage":4152,"Ġwits":4153,"clock":4154,"Ġaccess":4155,"Ġaccuse":4156,"Ġfolly":4157,"Only":4158,"Ġends":4159,"Ġendure":4160,"Ġneedful":4161,"Still":4162,"Ġbodies":4163,"Ġjoys":4164,"Ġjoyful":4165,"Ġfortunes":4166,"Ġmistake":4167,"Ġnatural":4168,"Ġhappiness":4169,"Ġmisery":4170,"Ġundertake":4171,"Ġchide":4172,"Ġattempt":4173,"Ġadvance":4174,"Ġcurses":4175,"Ġemploy":4176,"Ġassurance":4177,"Ġpersu":4178,"Ġdiscontent":4179,"Ġsenators":4180,"Ġcrack":4181,"Ġintent":4182,"Ġsometime":4183,"Ġwounded":4184,"Ġspoken":4185,"Ġdrum":4186,"Ġmarket":4187,"cape":4188,"Ġwaters":4189,"Ġcursed":4190,"Ġinstruct":4191,"Ġinstrument":4192,"ĠNap":4193,"ĠRivers":4194,"Ġterror":4195,"Ġresolved":4196,"chance":4197,"Ġwhiles":4198,"Ġcorrupt":4199,"ney":4200,"Ġburthen":4201,"Ġgriev":4202,"Ġduked":4203,"Ġaccept":4204,"Ġgroan":4205,"BALTHAS":4206,"Ġcolours":4207,"Ġpenit":4208,"Ġprotest":4209,"Ġprinces":4210,"Ġprincess":4211,"ĠStanley":4212,"Ġgovernment":4213,"Prithee":4214,"Ġobedience":4215,"Ġpetition":4216,"Ġsolemn":4217,"Believe":4218,"Ġcontinue":4219,"Ġcredit":4220,"Ġseveral":4221,"hearted":4222,"Ġwreck":4223,"Ġlanguage":4224,"Ġcircum":4225,"Ġdurst":4226,"Ġremembrance":4227,"Ġpublic":4228,"Ġunnatural":4229,"picion":4230,"Ġdukedom":4231,"BALTHASAR":4232,"?--":4233,"Ar":4234,"App":4235,"AEd":4236,"Bear":4237,"Boat":4238,"Father":4239,"FOL":4240,"Heaven":4241,"Love":4242,"Might":4243,"Mark":4244,"OS":4245,"Post":4246,"Page":4247,"Save":4248,"afe":4249,"bear":4250,"do":4251,"dds":4252,"ex":4253,"fer":4254,"gers":4255,"how":4256,"ipe":4257,"just":4258,"lic":4259,"oe":4260,"oved":4261,"ped":4262,"pro":4263,"sc":4264,"same":4265,"time":4266,"uary":4267,"val":4268,"vours":4269,"yr":4270,"ĠNay":4271,"ĠThey":4272,"Ġtest":4273,"Ġteeth":4274,"hest":4275,"Ġsink":4276,"Ġsins":4277,"Ġmag":4278,"Ġmile":4279,"ination":4280,"happy":4281,"ishop":4282,"Ġfame":4283,"erd":4284,"ita":4285,"Ġcock":4286,"Ġcease":4287,"ences":4288,"Ġnought":4289,"Ġled":4290,"aries":4291,"Ġhost":4292,"Ġhunt":4293,"Ġhouses":4294,"Ġhorses":4295,"Ġodd":4296,"Ġobs":4297,"Ġodds":4298,"Ġtomb":4299,"Ġpol":4300,"Ġpowers":4301,"strous":4302,"omp":4303,"omen":4304,"atic":4305,"atience":4306,"Ġbeyond":4307,"Ġhaz":4308,"uted":4309,"Ġmere":4310,"Ġisle":4311,"Ġisland":4312,"ourage":4313,"Ġeast":4314,"Ġits":4315,"Ġkin":4316,"idence":4317,"Ġrepe":4318,"Ġrealm":4319,"Ġshape":4320,"uses":4321,"ified":4322,"Ġseize":4323,"Those":4324,"Ġspite":4325,"Ġfaces":4326,"ĠCan":4327,"ĠCal":4328,"ĠROS":4329,"Ġvault":4330,"Ġvirg":4331,"Ġshun":4332,"ants":4333,"Ġcomest":4334,"Ġmanners":4335,"ĠEl":4336,"icular":4337,"Ġconc":4338,"ieved":4339,"Ġblock":4340,"Ġblush":4341,"ĠGood":4342,"ared":4343,"arent":4344,"olute":4345,"Ġhereafter":4346,"Ġswallow":4347,"Ġbrings":4348,"ĠSo":4349,"ĠBl":4350,"elt":4351,"Ġqual":4352,"Ġjour":4353,"Young":4354,"akest":4355,"ument":4356,"Ġfathers":4357,"ĠWho":4358,"Ġenmity":4359,"Ġring":4360,"CAS":4361,"ĠYet":4362,"Ġalter":4363,"Ġlooking":4364,"Ġfriendly":4365,"Ġslay":4366,"Ġflies":4367,"ĠTake":4368,"Ġfairly":4369,"tled":4370,"Ġadvers":4371,"Ġclo":4372,"Ġwrite":4373,"Ġtrade":4374,"Ġways":4375,"Ġscope":4376,"Ġscene":4377,"aintain":4378,"they":4379,"Ġkey":4380,"ĠFrench":4381,"Ġapprehe":4382,"Ġcontract":4383,"Ġwhore":4384,"Ġarmour":4385,"ctions":4386,"Ġuntimely":4387,"ression":4388,"Ġimm":4389,"Ġrepair":4390,"Ġrule":4391,"Ġleads":4392,"Ġslept":4393,"Ġaccord":4394,"Ġpurcha":4395,"Ġcompass":4396,"orset":4397,"Ġseeming":4398,"Ġbrain":4399,"Ġglorious":4400,"Ġimposs":4401,"Ġpassage":4402,"Ġmaiden":4403,"Ġhateful":4404,"Ġstrew":4405,"Ġturns":4406,"uteous":4407,"Ġinstant":4408,"Ġboar":4409,"Ġwants":4410,"NORFOL":4411,"Ġdiscover":4412,"Ġcommanded":4413,"Ġhanging":4414,"Ġcontented":4415,"Ġdares":4416,"Ġfreely":4417,"Ġgrey":4418,"Ġservices":4419,"Ġtemper":4420,"Ġdrums":4421,"Ġcholer":4422,"Ġgrows":4423,"Ġdeserves":4424,"noon":4425,"ĠLucio":4426,"Ġgranted":4427,"Comm":4428,"Ġterms":4429,"Ġincrease":4430,"Ġresolution":4431,"Ġshortly":4432,"Ġvex":4433,"Ġpraise":4434,"Ġabsent":4435,"Ġvenom":4436,"Ġdrops":4437,"Ġprivile":4438,"Ġrespected":4439,"Ġframe":4440,"Beseech":4441,"Ġapproach":4442,"Ġcomplain":4443,"Ġtorment":4444,"Ġunknown":4445,"Ġprosperous":4446,"DORCAS":4447,"Ġsuspicion":4448,"Ġreverend":4449,"Ġapparel":4450,"Ġcaptain":4451,"Ġdegree":4452,"ĠHermione":4453,"Ġsmooth":4454,"Ġlarge":4455,"Ġsharp":4456,"Ġearnest":4457,"Ġcamest":4458,"Ġdisdain":4459,"Ġexcellent":4460,"Ġsceptre":4461,"Ġdagger":4462,"ĠNaples":4463,"Boatswain":4464,"ĠROSS":4465,"NORFOLK":4466,"Amen":4467,"Boy":4468,"Came":4469,"Cons":4470,"DIN":4471,"Dear":4472,"FER":4473,"GH":4474,"Ghost":4475,"Has":4476,"Long":4477,"Mistress":4478,"NS":4479,"Please":4480,"RR":4481,"Roman":4482,"Set":4483,"Wilt":4484,"Worthy":4485,"aces":4486,"aily":4487,"bri":4488,"bra":4489,"dis":4490,"fret":4491,"gl":4492,"gar":4493,"iven":4494,"iate":4495,"ipp":4496,"kin":4497,"ker":4498,"law":4499,"pul":4500,"uce":4501,"wife":4502,"ĠTherefore":4503,"Ġtame":4504,"Ġtaught":4505,"Ġtap":4506,"Ġtide":4507,"Ġable":4508,"Ġsqu":4509,"Ġsouth":4510,"Ġmor":4511,"Ġmill":4512,"Ġmessenger":4513,"iny":4514,"reg":4515,"reland":4516,"reme":4517,"Ġbird":4518,"Ġbury":4519,"isper":4520,"Ġfig":4521,"Ġfurn":4522,"itus":4523,"Ġdig":4524,"Ġdress":4525,"Ġdaily":4526,"Ġchat":4527,"Ġcatch":4528,"Ġlark":4529,"Ġthorn":4530,"Ġthief":4531,"Ġparent":4532,"ĠIreland":4533,"ances":4534,"omans":4535,"ater":4536,"ature":4537,"atcl":4538,"Ġbef":4539,"Ġbeard":4540,"Ġbethink":4541,"Ġmeant":4542,"Ġweather":4543,"Ġwept":4544,"ades":4545,"ricians":4546,"Ġstol":4547,"Ġstamp":4548,"Ġrej":4549,"Ġrecom":4550,"Ġrevol":4551,"Ġlion":4552,"aline":4553,"Ġwilling":4554,"Ġwillingly":4555,"Ġnobl":4556,"Ġnobly":4557,"andal":4558,"Ġseason":4559,"Ġsull":4560,"Ġsuck":4561,"Ġspr":4562,"Ġspur":4563,"ĠCo":4564,"ĠCons":4565,"Ġknife":4566,"ĠRos":4567,"ĠRomans":4568,"Ġvows":4569,"Ġcomb":4570,"ĠMay":4571,"ĠMil":4572,"Ġamazed":4573,"Ġconce":4574,"Ġconceit":4575,"Ġconstant":4576,"ember":4577,"Help":4578,"Ġlovely":4579,"Ġswell":4580,"ĠST":4581,"ĠBe":4582,"ĠBer":4583,"Ġunless":4584,"Ġworn":4585,"Ġworthi":4586,"Ġjew":4587,"Ġmuster":4588,"Ġprovo":4589,"ĠPray":4590,"Ġruth":4591,"ĠAd":4592,"ĠApollo":4593,"Ġdisper":4594,"Ġabhor":4595,"Ġroar":4596,"Ġrogue":4597,"Ġtells":4598,"Ġwhereof":4599,"Ġwarlike":4600,"Ġhasty":4601,"Ġfears":4602,"Ġgreatest":4603,"oldier":4604,"Ġparticular":4605,"Ġadver":4606,"Ġcommitted":4607,"Ġclam":4608,"ĠDo":4609,"Ġperj":4610,"Ġperforce":4611,"Ġwrought":4612,"liament":4613,"Ġnorth":4614,"Ġpress":4615,"Ġrap":4616,"Ġraise":4617,"ĠFarewell":4618,"Ġbegun":4619,"forth":4620,"ĠJack":4621,"Ġconsider":4622,"Ġpeers":4623,"love":4624,"Ġwitch":4625,"Ġaccused":4626,"Ġkindly":4627,"Ġcompan":4628,"Ġsmiles":4629,"Ġcounty":4630,"Ġfinds":4631,"Stri":4632,"Ġbraw":4633,"Ġcharged":4634,"Ġpassion":4635,"Clarence":4636,"Ġholds":4637,"GREEN":4638,"Ġstreets":4639,"Ġbuild":4640,"Ġsoundly":4641,"Ġserves":4642,"Ġboots":4643,"Ġadvice":4644,"Ġcurrent":4645,"Ġrevenged":4646,"Ġassured":4647,"Ġsends":4648,"Ġgiving":4649,"Ġwinds":4650,"Ġhanged":4651,"Ġdarest":4652,"Ġintell":4653,"Ġsupposed":4654,"Ġafford":4655,"ALONS":4656,"Whither":4657,"Ġhardly":4658,"Ġprofit":4659,"Ġparliament":4660,"Ġrecord":4661,"Ġveins":4662,"Ġwaste":4663,"Ġstopp":4664,"Until":4665,"Ġpieces":4666,"Ġwait":4667,"Ġgarland":4668,"Ġgrieve":4669,"Ġsky":4670,"Ġforbear":4671,"ĠPomfret":4672,"Ġdirect":4673,"Ġgroans":4674,"Ġthrice":4675,"Ġestate":4676,"erns":4677,"TYRR":4678,"Ġoppos":4679,"Ġdestroy":4680,"About":4681,"Ġurged":4682,"Ġaffections":4683,"Ġfamous":4684,"Ġhaply":4685,"DORSET":4686,"Supp":4687,"Ġlusty":4688,"Ġelder":4689,"Ġstudy":4690,"Ġcounterfeit":4691,"Gentlemen":4692,"Ġarrived":4693,"Ġbehalf":4694,"ĠMarshal":4695,"Ġavoid":4696,"Ġimprisonment":4697,"untsman":4698,"Ġrascal":4699,"Ġtreacherous":4700,"Ġconduct":4701,"Ġprotector":4702,"Ġspecial":4703,"Ġsanctuary":4704,"Ġperpetual":4705,"Ġgrievous":4706,"AEdile":4707,"Ġvirgin":4708,"Ġjourney":4709,"DINAND":4710,"FERDINAND":4711,"atcliff":4712,"ĠConspir":4713,"ALONSO":4714,"TYRREL":4715,";--":4716,"Acc":4717,"Bring":4718,"Coriol":4719,"Keep":4720,"Leave":4721,"Makes":4722,"Vols":4723,"af":4724,"cure":4725,"des":4726,"dig":4727,"eat":4728,"erer":4729,"fess":4730,"fellow":4731,"faced":4732,"grim":4733,"groom":4734,"ib":4735,"iving":4736,"ienn":4737,"lanch":4738,"master":4739,"mory":4740,"maid":4741,"nal":4742,"sha":4743,"ser":4744,"some":4745,"ties":4746,"upt":4747,"vior":4748,"wear":4749,"xeter":4750,"zz":4751,"Ġz":4752,"Ġing":4753,"ĠThen":4754,"Ġtask":4755,"Ġach":4756,"Ġapt":4757,"Ġaunt":4758,"Ġsy":4759,"Ġsal":4760,"Ġsire":4761,"Ġmult":4762,"Ġmaintain":4763,"Ġwing":4764,"Ġwide":4765,"Ġwhip":4766,"Ġwaking":4767,"reen":4768,"Ġbade":4769,"isbury":4770,"Ġfi":4771,"Ġfood":4772,"Ġfrow":4773,"Ġfun":4774,"Ġfeet":4775,"Ġfires":4776,"Ġfancy":4777,"erity":4778,"erby":4779,"itation":4780,"onci":4781,"Ġdow":4782,"Ġdim":4783,"Ġdri":4784,"Ġdying":4785,"Ġcher":4786,"Ġcaught":4787,"Ġcere":4788,"esar":4789,"essel":4790,"enant":4791,"Ġnail":4792,"Ġlin":4793,"Ġyond":4794,"Ġyoke":4795,"Ġthird":4796,"Ġhor":4797,"Ġhie":4798,"Ġpi":4799,"Ġpot":4800,"Ġpound":4801,"Ġpurse":4802,"Ġpier":4803,"vet":4804,"ative":4805,"sell":4806,"Ġinqu":4807,"etite":4808,"eder":4809,"utenant":4810,"Ġmelt":4811,"Ġmelanch":4812,"Ġfors":4813,"Ġforced":4814,"Ġforfeit":4815,"ourse":4816,"ourth":4817,"Ġevent":4818,"adv":4819,"aded":4820,"rick":4821,"Ġsting":4822,"Ġstro":4823,"Ġstout":4824,"Ġstret":4825,"Ġstroke":4826,"Ġreck":4827,"rac":4828,"ales":4829,"alisbury":4830,"Ġsore":4831,"Ġsooth":4832,"Ġdeceit":4833,"roll":4834,"ested":4835,"earer":4836,"amb":4837,"ams":4838,"aming":4839,"Ġsees":4840,"Ġalliance":4841,"Ġsue":4842,"ruction":4843,"ellion":4844,"Ġsple":4845,"ilence":4846,"Ġknaves":4847,"Ġvessel":4848,"ulate":4849,"arts":4850,"nty":4851,"ĠExeter":4852,"icy":4853,"Ġconfe":4854,"Ġblunt":4855,"ĠGive":4856,"ares":4857,"ĠLe":4858,"Ġsaying":4859,"ĠSoldier":4860,"Ġunjust":4861,"Ġunhappy":4862,"ignty":4863,"LIS":4864,"Ġgraves":4865,"ĠWell":4866,"Ġenforce":4867,"deem":4868,"ĠAll":4869,"ĠAway":4870,"irect":4871,"harge":4872,"Ġoffended":4873,"Ġdissem":4874,"Ġdisgrace":4875,"Ġalack":4876,"Ġalike":4877,"Ġalthough":4878,"Ġabide":4879,"Ġaboard":4880,"Noble":4881,"Ġrose":4882,"Ġexchange":4883,"Soft":4884,"ages":4885,"Ġdesires":4886,"Ġdescend":4887,"Ġslaves":4888,"Ġflood":4889,"Ġflatt":4890,"Ġtwain":4891,"ĠTitus":4892,"Ġbetray":4893,"Ġbetimes":4894,"Ġnewly":4895,"Ġparting":4896,"Ġpartly":4897,"Ġcalled":4898,"Ġcommons":4899,"Ġcommission":4900,"Ġstanding":4901,"Ġclim":4902,"ĠDe":4903,"ĠDorset":4904,"ĠDerby":4905,"ullus":4906,"Ġwrink":4907,"Ġbearing":4908,"aints":4909,"Ġrare":4910,"thee":4911,"ĠFroth":4912,"Ġappeal":4913,"Ġappetite":4914,"Ġcontempt":4915,"Ġwhisper":4916,"Ġimage":4917,"ĠMarian":4918,"forced":4919,"Ġrust":4920,"Ġruled":4921,"Ġhousehold":4922,"Ġrestra":4923,"ercy":4924,"Ġsets":4925,"clam":4926,"osing":4927,"Ġresist":4928,"Ġtrick":4929,"Ġputs":4930,"Ġpowerful":4931,"Ġchase":4932,"Ġcharac":4933,"Ġsmell":4934,"Ġtreasure":4935,"Ġbrace":4936,"iety":4937,"Ġmistrust":4938,"Ġnative":4939,"Ġboys":4940,"Ġweeps":4941,"Ġpatricians":4942,"Ġbelow":4943,"Lords":4944,"Ġfalsehood":4945,"Ġsovereignty":4946,"ouchs":4947,"Ġassure":4948,"Ġsecure":4949,"Twere":4950,"Ġsometimes":4951,"Ġoaths":4952,"Ġmerit":4953,"upon":4954,"Ġfaithful":4955,"Ġdefence":4956,"Ġaffli":4957,"Ġsurely":4958,"should":4959,"Ġsilent":4960,"Ġinstruments":4961,"Cannot":4962,"Ġbeholding":4963,"Ġreconci":4964,"Ġago":4965,"Ġagree":4966,"Ġcorre":4967,"Ġsingle":4968,"Ġbreathed":4969,"Ġforgive":4970,"Ġweakness":4971,"Ġprett":4972,"Ġsickness":4973,"Ġregal":4974,"Ġregard":4975,"Ġmouths":4976,"Ġbooks":4977,"Ġbarren":4978,"Ġbeasts":4979,"Ġtrumpet":4980,"eeming":4981,"Ġpitch":4982,"Ġshield":4983,"Ġunkind":4984,"Ġtempest":4985,"Ġsuspect":4986,"Ġobedient":4987,"Ġreverence":4988,"Ġapparent":4989,"Ġentertainment":4990,"ĠAnti":4991,"Ġdetermined":4992,"Ġhelm":4993,"Ġgently":4994,"Ġholp":4995,"Ġfairest":4996,"Ġtremble":4997,"shire":4998,"Ġstabb":4999,"Ġtyranny":5000,"Ġlength":5001,"Ġpilgrim":5002,"ĠSicilia":5003,"Ġequal":5004,"Ġfashion":5005,"Ġdignity":5006,"Ġcomplex":5007,"Ġcircumst":5008,"yrrel":5009,"Ġaccording":5010,"Ġimpossible":5011,"Ġrejo":5012,"ĠRosaline":5013,"ĠMayor":5014,"ĠMilan":5015,"Volsce":5016,"ienna":5017,"Ġfroward":5018,"Ġmelancholy":5019,"Ġconference":5020,".--":5021,"AD":5022,"Cry":5023,"Cond":5024,"CLE":5025,"Down":5026,"Draw":5027,"Each":5028,"Fl":5029,"FRO":5030,"Fair":5031,"Hail":5032,"IL":5033,"IT":5034,"Im":5035,"Kn":5036,"King":5037,"Lay":5038,"Lie":5039,"Lady":5040,"Many":5041,"OMEN":5042,"PH":5043,"Qu":5044,"Ri":5045,"Sm":5046,"Son":5047,"Somet":5048,"Tush":5049,"UGH":5050,"Warwick":5051,"Ye":5052,"acc":5053,"action":5054,"bod":5055,"bation":5056,"cra":5057,"cary":5058,"cceed":5059,"eb":5060,"eve":5061,"fa":5062,"fold":5063,"foot":5064,"give":5065,"iver":5066,"iam":5067,"kind":5068,"long":5069,"look":5070,"mong":5071,"ns":5072,"nes":5073,"new":5074,"rs":5075,"rat":5076,"rough":5077,"say":5078,"sues":5079,"than":5080,"tic":5081,"teen":5082,"tles":5083,"uries":5084,"war":5085,"weal":5086,"xe":5087,"Ġtim":5088,"Ġtres":5089,"Ġtall":5090,"Ġtakes":5091,"Ġtarry":5092,"Ġtaunt":5093,"here":5094,"Ġaxe":5095,"oubt":5096,"Ġsalt":5097,"Ġsnow":5098,"Ġmir":5099,"Ġmood":5100,"Ġmess":5101,"Ġmirth":5102,"inct":5103,"Ġwid":5104,"Ġwest":5105,"Ġwake":5106,"Ġwink":5107,"hand":5108,"Ġbir":5109,"Ġbuck":5110,"ories":5111,"ering":5112,"erves":5113,"iter":5114,"itable":5115,"onation":5116,"Ġdiffe":5117,"Ġcost":5118,"Ġchall":5119,"Ġciv":5120,"Ġnap":5121,"Ġlent":5122,"Ġline":5123,"Ġlap":5124,"Ġyes":5125,"Ġthir":5126,"Ġthick":5127,"Ġthread":5128,"Ġhorn":5129,"Ġoak":5130,"Ġope":5131,"Ġtoad":5132,"Ġtoil":5133,"Ġtooth":5134,"Ġpee":5135,"Ġpause":5136,"ĠIta":5137,"othes":5138,"stable":5139,"stery":5140,"aning":5141,"omach":5142,"Ġgru":5143,"Ġgaze":5144,"Ġmystery":5145,"Ġinfection":5146,"Ġmemory":5147,"imble":5148,"illy":5149,"illing":5150,"herit":5151,"Ġste":5152,"Ġstick":5153,"Ġstumble":5154,"asp":5155,"ases":5156,"Ġrece":5157,"Ġreap":5158,"Ġredeem":5159,"Ġlift":5160,"Ġliken":5161,"alse":5162,"Ġdeb":5163,"Ġdeck":5164,"Ġdecl":5165,"Ġsham":5166,"ushy":5167,"ushes":5168,"Ġsell":5169,"Ġseiz":5170,"Ġseldom":5171,"Ġsepul":5172,"Through":5173,"Ġsuper":5174,"Ġsuitor":5175,"Ġsucceed":5176,"thing":5177,"Ġlover":5178,"Ġlovest":5179,"Ġspl":5180,"Ġspy":5181,"Ġfact":5182,"Ġfawn":5183,"Ġnegle":5184,"Ġknot":5185,"Ġvar":5186,"Ġvill":5187,"Ġvol":5188,"Ġshri":5189,"ulf":5190,"seless":5191,"artius":5192,"Ġmanif":5193,"Ġmanage":5194,"ĠMin":5195,"ical":5196,"icles":5197,"ĠLau":5198,"ĠLartius":5199,"Ġhated":5200,"LOUGH":5201,"ersu":5202,"Ġswain":5203,"Ġbran":5204,"pping":5205,"ĠSalisbury":5206,"Ġunwill":5207,"ĠHis":5208,"ĠHeaven":5209,"ĠVen":5210,"ĠVienna":5211,"Whether":5212,"Ġjot":5213,"cies":5214,"Ġshoulder":5215,"ĠPerd":5216,"ĠWIL":5217,"Ġdeaths":5218,"Ġheartily":5219,"Ġwholesome":5220,"Ġmarks":5221,"Ġoffic":5222,"Ġdisple":5223,"Ġdisgu":5224,"Ġabused":5225,"Ġexerc":5226,"Ġdescent":5227,"Ġripe":5228,"Ġride":5229,"ased":5230,"Ġleague":5231,"Ġslip":5232,"Ġwarri":5233,"ĠTar":5234,"ĠTell":5235,"ĠTyrrel":5236,"Ġbred":5237,"Ġheavenly":5238,"Ġclothes":5239,"Ġsweeter":5240,"Ġperhaps":5241,"Ġscold":5242,"Ġscandal":5243,"Ġrain":5244,"Ġrail":5245,"Ġraised":5246,"Ġappointed":5247,"Ġwhit":5248,"Ġremorse":5249,"Ġremove":5250,"Ġremoved":5251,"ĠLords":5252,"Ġbegan":5253,"Ġrepose":5254,"Ġharsh":5255,"Ġkeeper":5256,"Ġaccident":5257,"Ġaccursed":5258,"Ġyounger":5259,"Ġyoungest":5260,"Ġprick":5261,"Ġdearly":5262,"Ġsubtle":5263,"RIAN":5264,"Ġrights":5265,"fortune":5266,"Ġminds":5267,"Ġcoff":5268,"Ġdevotion":5269,"Ġmischance":5270,"Ġmeeting":5271,"Ġafternoon":5272,"Ġcareless":5273,"Uncle":5274,"Ġgriefs":5275,"Anon":5276,"Ġhuman":5277,"Ġcounc":5278,"Ġgrat":5279,"Ġretire":5280,"Ġserved":5281,"Ġadventure":5282,"Ġcurt":5283,"Ġcountrymen":5284,"Ġvirtues":5285,"Ġwindows":5286,"itten":5287,"Ġcraves":5288,"Ġcraft":5289,"Ġbeauteous":5290,"Ġstranger":5291,"Ġyielded":5292,"Ġsupply":5293,"Ġcommonweal":5294,"Ġmonstrous":5295,"Ġmonument":5296,"Didst":5297,"soever":5298,"Ġgrowing":5299,"Ġheirs":5300,"Ġvisage":5301,"Ġpoints":5302,"Ġstronger":5303,"Ġtrusty":5304,"Ġinstruction":5305,"Ġinfant":5306,"Ġforeign":5307,"Ġincen":5308,"Ġfeeling":5309,"Ġburst":5310,"Ġplainly":5311,"Ġabsolute":5312,"Ġfourteen":5313,"Ġselfsame":5314,"Ġfrowns":5315,"Ġdirection":5316,"Ġredress":5317,"Ġsatisfy":5318,"Ġservants":5319,"ollow":5320,"Ġblem":5321,"Ġbridegroom":5322,"Ġbabes":5323,"Ġgallant":5324,"Ġrebellion":5325,"Ġwriting":5326,"Ġfierce":5327,"Ġshadows":5328,"Ġpleasing":5329,"Ġmodest":5330,"Ġmodesty":5331,"Ġobject":5332,"Ġforswear":5333,"Ġuncles":5334,"Ġrefuse":5335,"Among":5336,"banished":5337,"Ġbigger":5338,"Ġfeather":5339,"Ġdetermine":5340,"Betw":5341,"Better":5342,"Ġchaste":5343,"otted":5344,"Ġfairer":5345,"Ġshrewd":5346,"Ġdismal":5347,"Ġtrembling":5348,"Ġacquaint":5349,"Ġprophet":5350,"Ġedge":5351,"Ġeagle":5352,"Ġshroud":5353,"Ġsubstit":5354,"othecary":5355,"Ġsteeds":5356,"Ġiron":5357,"Ġtorture":5358,"Ġrenowned":5359,"Ġdearest":5360,"Return":5361,"Remember":5362,"Ġwondrous":5363,"Ġballad":5364,"Ġpenitent":5365,"Ġpolicy":5366,"Ġrepeal":5367,"Ġadversaries":5368,"Ġpurchase":5369,"Commend":5370,"Ġprivilege":5371,"Ġrevolt":5372,"Ġsullen":5373,"Ġconceal":5374,"ĠConspirator":5375,"Coriolanus":5376,"Ġdowry":5377,"Ġpierce":5378,"Ġstrokes":5379,"Ġflatterer":5380,"ĠMariana":5381,"ouchsafe":5382,"ADRIAN":5383,"CLEOMEN":5384,"FROTH":5385,"Ġtrespass":5386,"Ġcivil":5387,"Ġthirty":5388,"ĠItaly":5389,"Ġsepulch":5390,"LOUGHBY":5391,"ĠPerdita":5392,"ĠWILLOUGHBY":5393,"Ġexercise":5394,"CLEOMENES":5395,"AM":5396,"Aw":5397,"BAR":5398,"Courage":5399,"Dare":5400,"Find":5401,"Get":5402,"Men":5403,"Mist":5404,"Making":5405,"Methought":5406,"NARD":5407,"Oh":5408,"Pur":5409,"Petruchio":5410,"Que":5411,"Rather":5412,"RUT":5413,"Se":5414,"Sound":5415,"Tranio":5416,"UR":5417,"Villain":5418,"Wit":5419,"ax":5420,"br":5421,"bble":5422,"boy":5423,"car":5424,"cest":5425,"cue":5426,"cence":5427,"done":5428,"ders":5429,"duke":5430,"ext":5431,"from":5432,"gy":5433,"got":5434,"ghan":5435,"great":5436,"gentle":5437,"iar":5438,"ips":5439,"mas":5440,"made":5441,"nken":5442,"nicious":5443,"oon":5444,"oes":5445,"off":5446,"phy":5447,"pret":5448,"pardon":5449,"rity":5450,"ratch":5451,"sire":5452,"scal":5453,"tend":5454,"ug":5455,"vive":5456,"vied":5457,"ĠAs":5458,"Ġtou":5459,"Ġtro":5460,"Ġtig":5461,"Ġtail":5462,"Ġale":5463,"Ġages":5464,"Ġsn":5465,"Ġmain":5466,"Ġmil":5467,"Ġmethought":5468,"inate":5469,"Ġward":5470,"Ġwakes":5471,"Ġbon":5472,"Ġbore":5473,"Ġbag":5474,"Ġbrown":5475,"Ġborrow":5476,"Ġbott":5477,"ision":5478,"orough":5479,"Ġfish":5480,"Ġfret":5481,"Ġfix":5482,"Ġfreed":5483,"ital":5484,"itiff":5485,"onest":5486,"Ġdate":5487,"Ġdower":5488,"Ġcrow":5489,"esu":5490,"enge":5491,"Ġnet":5492,"Ġnest":5493,"Ġnice":5494,"Ġnumb":5495,"Ġnupt":5496,"Ġlur":5497,"Ġlance":5498,"Ġlower":5499,"Ġluck":5500,"Ġyon":5501,"Ġthin":5502,"Ġthie":5503,"Ġthirst":5504,"Ġthumb":5505,"Ġhom":5506,"Ġhind":5507,"Ġhig":5508,"Ġhire":5509,"Ġhoney":5510,"Ġtoy":5511,"Ġtomorrow":5512,"Ġped":5513,"Ġpear":5514,"Ġpath":5515,"Ġpage":5516,"hath":5517,"ĠIt":5518,"Ġheat":5519,"Ġheels":5520,"owl":5521,"ingers":5522,"Ġgid":5523,"atri":5524,"atest":5525,"Ġbere":5526,"Ġbefall":5527,"sey":5528,"Ġink":5529,"cels":5530,"Ġhare":5531,"Ġhaught":5532,"Ġhabit":5533,"ayed":5534,"Ġnoted":5535,"chief":5536,"keley":5537,"Ġweal":5538,"Ġwealth":5539,"oops":5540,"hern":5541,"Ġwithdraw":5542,"rif":5543,"rich":5544,"rible":5545,"Ġstale":5546,"Ġstern":5547,"Ġstomach":5548,"order":5549,"INE":5550,"rage":5551,"Ġlivery":5552,"Ġliking":5553,"urg":5554,"urrey":5555,"Ġdeaf":5556,"Ġshare":5557,"Ġshapes":5558,"Ġdove":5559,"Ġdogs":5560,"Ġdozen":5561,"Ġwills":5562,"ushing":5563,"Ġsuits":5564,"Ġhers":5565,"Ġanointed":5566,"ardel":5567,"Ġspit":5568,"Ġspect":5569,"Ġshallow":5570,"ĠCounty":5571,"Ġneat":5572,"Ġvent":5573,"Ġshook":5574,"Ġshines":5575,"Ġupright":5576,"Ġgoods":5577,"Ġprime":5578,"Ġamiss":5579,"icate":5580,"icio":5581,"Ġconceive":5582,"iege":5583,"Ġblast":5584,"ĠGree":5585,"emper":5586,"Ġgodd":5587,"aughan":5588,"Ġsirs":5589,"ola":5590,"olved":5591,"ĠLicio":5592,"Ġthereby":5593,"ept":5594,"eping":5595,"Ġswore":5596,"Ġsweat":5597,"Ġorn":5598,"ĠSc":5599,"ĠSp":5600,"ĠSee":5601,"ĠShore":5602,"ĠOff":5603,"ĠBr":5604,"ĠBy":5605,"Ġarrest":5606,"Ġlets":5607,"Ġunst":5608,"Ġunse":5609,"Ġunfe":5610,"Ġworm":5611,"ĠVal":5612,"aker":5613,"Ġhop":5614,"Ġlikely":5615,"Ġproclam":5616,"ĠPlease":5617,"ĠPETER":5618,"Ġsav":5619,"Ġmadness":5620,"umbling":5621,"Ġplaces":5622,"iced":5623,"ĠWilt":5624,"Ġeng":5625,"unate":5626,"Ġrans":5627,"Ġtrunk":5628,"Ġsomewhat":5629,"harged":5630,"orney":5631,"Ġoffices":5632,"Ġdisgra":5633,"Ġalms":5634,"Ġabuse":5635,"Ġexam":5636,"Ġtelling":5637,"Ġlooked":5638,"Ġthinking":5639,"Ġwhereon":5640,"agues":5641,"Whereto":5642,"Ġflow":5643,"Ġflint":5644,"Ġflourish":5645,"Ġfearing":5646,"bert":5647,"Ġbreed":5648,"Ġgreatness":5649,"Ġparted":5650,"Ġpernicious":5651,"Ġtroop":5652,"Ġtroops":5653,"lied":5654,"Ġscatter":5655,"ainty":5656,"ables":5657,"ĠFare":5658,"Ġappea":5659,"Ġgraced":5660,"Ġbegu":5661,"Ġbeget":5662,"rank":5663,"Ġchildish":5664,"Ġreply":5665,"Ġconsort":5666,"loves":5667,"ercing":5668,"cheth":5669,"Ġtrif":5670,"ontes":5671,"Ġprice":5672,"Ġsubd":5673,"Ġbacks":5674,"twill":5675,"Ġforthwith":5676,"Ġbank":5677,"Ġcheap":5678,"Ġcharm":5679,"Ġlaws":5680,"Ġconfirm":5681,"Ġcoll":5682,"Ġlightning":5683,"Does":5684,"Ġroyalty":5685,"ĠAnne":5686,"Ġbesides":5687,"Ġhappily":5688,"Ġsorrows":5689,"Ġcareful":5690,"Ġlesser":5691,"Ġstrive":5692,"Ġsleeping":5693,"Ġdrag":5694,"Ġserp":5695,"Ġboast":5696,"pense":5697,"Ġwanting":5698,"Ġbreathing":5699,"Ġdiscourse":5700,"Ġsenseless":5701,"Ġbeaut":5702,"Ġhangs":5703,"Ġdepend":5704,"hamed":5705,"Ġgrew":5706,"Ġspoil":5707,"Ġdrunken":5708,"Ġaffords":5709,"Ġmetal":5710,"Ġsooner":5711,"IDAM":5712,"Ġsights":5713,"Ġmonster":5714,"Ġmonarch":5715,"acles":5716,"Ġsadness":5717,"Ġsuffic":5718,"Ġcarried":5719,"Ġexecute":5720,"Ġexecuted":5721,"Ġminute":5722,"Ġvel":5723,"Ġcoronation":5724,"Ġpraises":5725,"Ġwaves":5726,"Ġburnt":5727,"Ġliberal":5728,"Ġburns":5729,"Ġburning":5730,"Ġproport":5731,"Ġblessing":5732,"Ġbleeding":5733,"Ġestim":5734,"Ġbitterly":5735,"mbles":5736,"speak":5737,"Ġlimit":5738,"Ġlimbs":5739,"Ġsacrif":5740,"Ġsuccession":5741,"Ġactions":5742,"Ġcaps":5743,"Ġviolence":5744,"Ġtriumphant":5745,"Ġmidnight":5746,"Ġrebels":5747,"Ġpossession":5748,"Play":5749,"Ġtorch":5750,"Ġcaitiff":5751,"Ġpitiful":5752,"Ġinjury":5753,"Ġurge":5754,"Ġexecutioner":5755,"March":5756,"Marcius":5757,"Ġmeddle":5758,"Ġoccup":5759,"Ġnobility":5760,"Ġchurchyard":5761,"Ġignorance":5762,"Ġsaints":5763,"headed":5764,"ĠCaesar":5765,"Ġrank":5766,"Ġguests":5767,"ĠWilliam":5768,"Ġhungry":5769,"Ġunfold":5770,"Ġmonths":5771,"Ġextremity":5772,"Ġinclined":5773,"Ġcovert":5774,"Ġjoints":5775,"Ġprevented":5776,"Ġtyrann":5777,"Ġlengthen":5778,"Ġwager":5779,"Ġnecessity":5780,"Ġsubstance":5781,"Ġescape":5782,"Ġsenses":5783,"Ġstatue":5784,"Ġconjure":5785,"Ġbands":5786,"Ġweapon":5787,"Ġsteps":5788,"Ġangel":5789,"Ġtransport":5790,"Ġthreatening":5791,"Ġwolf":5792,"Ġcensure":5793,"ribunes":5794,"ARCHIDAM":5795,"ĠDido":5796,"ĠElbow":5797,"Ġapprehend":5798,"Ġimmortal":5799,"Ġtapster":5800,"Ġmoral":5801,"ĠBerkeley":5802,"Ġjewel":5803,"Ġruthless":5804,"Ġdispersed":5805,"Ġclamour":5806,"Ġrapier":5807,"Ġcompanion":5808,"Strike":5809,"Ġopposite":5810,"Ġzeal":5811,"Ġcherish":5812,"Ġstretch":5813,"ambio":5814,"Ġspleen":5815,"Ġcharacter":5816,"Ġprettiest":5817,"Ġrejoice":5818,"Ġbirds":5819,"Ġchallenge":5820,"Ġpeevish":5821,"Ġlikeness":5822,"ĠLaurence":5823,"Ġofficers":5824,"Ġwarriors":5825,"Ġcommonwealth":5826,"Ġsepulchre":5827,"BARNARD":5828,"Queen":5829,"RUTLAND":5830,"scalus":5831,"Ġbottom":5832,"Ġnuptial":5833,"Ġgiddy":5834,"ĠOfficer":5835,"ĠWiltshire":5836,"ARCHIDAMUS":5837,"BARNARDINE":5838,"ATER":5839,"Add":5840,"Bre":5841,"Bra":5842,"BAN":5843,"CRO":5844,"Content":5845,"Ever":5846,"Eng":5847,"Else":5848,"EPH":5849,"Full":5850,"False":5851,"Follow":5852,"GO":5853,"Ga":5854,"Gard":5855,"Gentleman":5856,"Hic":5857,"Henry":5858,"Hortensio":5859,"Lu":5860,"Live":5861,"Mis":5862,"MOR":5863,"Much":5864,"Name":5865,"Old":5866,"Patience":5867,"Persu":5868,"Saw":5869,"Six":5870,"SIR":5871,"TON":5872,"Toward":5873,"TMOR":5874,"Virt":5875,"Wr":5876,"WES":5877,"Woe":5878,"Women":5879,"WATER":5880,"Yield":5881,"ZWATER":5882,"ald":5883,"aven":5884,"back":5885,"cor":5886,"cus":5887,"call":5888,"cap":5889,"cont":5890,"cons":5891,"ded":5892,"dal":5893,"fri":5894,"gged":5895,"horse":5896,"iban":5897,"light":5898,"may":5899,"nant":5900,"pray":5901,"ront":5902,"sen":5903,"vided":5904,"wd":5905,"wing":5906,"water":5907,"zed":5908,"Ġice":5909,"Ġought":5910,"ĠThy":5911,"Ġeter":5912,"ĠQueen":5913,"Ġtard":5914,"Ġtack":5915,"Ġtree":5916,"Ġtied":5917,"Ġtired":5918,"Ġtakest":5919,"Ġah":5920,"Ġaud":5921,"Ġaged":5922,"oured":5923,"Ġsed":5924,"Ġsess":5925,"Ġsau":5926,"Ġsings":5927,"Ġsought":5928,"Ġsides":5929,"Ġsurp":5930,"Ġsilly":5931,"Ġmat":5932,"Ġmour":5933,"Ġmould":5934,"iners":5935,"Ġwet":5936,"Ġwave":5937,"Ġwaked":5938,"reet":5939,"reant":5940,"habit":5941,"Ġbay":5942,"Ġbill":5943,"Ġbent":5944,"Ġbru":5945,"Ġbol":5946,"Ġbalm":5947,"ishes":5948,"isement":5949,"orth":5950,"oriz":5951,"Ġfin":5952,"Ġfant":5953,"Ġfray":5954,"Ġfever":5955,"Ġfelt":5956,"Ġfardel":5957,"erily":5958,"itch":5959,"oned":5960,"onus":5961,"onstant":5962,"Ġcat":5963,"Ġcent":5964,"Ġcook":5965,"envol":5966,"Ġnar":5967,"Ġlour":5968,"Ġlun":5969,"arm":5970,"Ġomit":5971,"Ġtops":5972,"Ġpor":5973,"Ġpill":5974,"Ġpent":5975,"Ġphi":5976,"Ġpick":5977,"Ġpace":5978,"Ġpaint":5979,"Ġpaid":5980,"Ġpush":5981,"Ġpalm":5982,"Ġpomp":5983,"ĠIn":5984,"Ġhera":5985,"Ġheight":5986,"omes":5987,"Ġgn":5988,"Ġgap":5989,"Ġgains":5990,"Ġgoose":5991,"athe":5992,"athed":5993,"Ġbeams":5994,"sec":5995,"seem":5996,"Ġinv":5997,"Ġhail":5998,"iring":5999,"ednes":6000,"uts":6001,"utch":6002,"Ġmew":6003,"Ġmemb":6004,"Ġissu":6005,"Ġforty":6006,"Ġweek":6007,"ently":6008,"riel":6009,"Ġstead":6010,"Ġhist":6011,"Ġrend":6012,"Ġrear":6013,"Ġreach":6014,"Ġrevel":6015,"raid":6016,"Ġlions":6017,"Ġlikes":6018,"Ġlivest":6019,"urgh":6020,"urtis":6021,"alter":6022,"Ġsoil":6023,"Ġsoci":6024,"Ġaspect":6025,"Ġashamed":6026,"Ġdem":6027,"Ġdepose":6028,"rog":6029,"ARLIS":6030,"hire":6031,"verty":6032,"Ġbutt":6033,"Ġsevere":6034,"Ġseated":6035,"Thine":6036,"Things":6037,"Ġalleg":6038,"Ġherd":6039,"three":6040,"Ġanch":6041,"tering":6042,"Ġload":6043,"Ġlock":6044,"Ġlovers":6045,"ellows":6046,"Ġspread":6047,"Ġourself":6048,"Ġfavours":6049,"ilful":6050,"iliar":6051,"ĠCurtis":6052,"ĠCARLIS":6053,"ĠRatcliff":6054,"ĠRaven":6055,"Ġvast":6056,"ORGE":6057,"Ġshru":6058,"Ġshrift":6059,"arted":6060,"ĠMistress":6061,"ĠEm":6062,"ĠEly":6063,"ĠELY":6064,"ĠEscalus":6065,"Ġamain":6066,"Ġamends":6067,"Ġambit":6068,"Ġamorous":6069,"Ġconsequ":6070,"iece":6071,"ĠGreen":6072,"Ġshel":6073,"Ġgoss":6074,"arers":6075,"olks":6076,"ĠLook":6077,"Ġknowing":6078,"resh":6079,"Ġswears":6080,"Ġbrat":6081,"ĠShall":6082,"ĠSurrey":6083,"ĠSCRO":6084,"ĠOur":6085,"ĠBushy":6086,"ĠBurg":6087,"Ġarray":6088,"Ġune":6089,"Ġunm":6090,"Ġunre":6091,"igent":6092,"igonus":6093,"ĠHim":6094,"ĠHark":6095,"ĠHuntsman":6096,"ĠVaughan":6097,"elsh":6098,"eliver":6099,"LIBAN":6100,"Ġgrain":6101,"Ġhoar":6102,"Ġlikewise":6103,"Ġproved":6104,"Ġprocess":6105,"Ġprodig":6106,"umed":6107,"ĠWas":6108,"ĠWould":6109,"ĠWelsh":6110,"isting":6111,"Ġenc":6112,"uns":6113,"Ġrate":6114,"Ġrouse":6115,"Ġpoverty":6116,"Ġspeaking":6117,"Ġoutrage":6118,"ELAND":6119,"ickle":6120,"CALIBAN":6121,"Withdraw":6122,"igned":6123,"Ġmars":6124,"Ġmarvel":6125,"Ġmarvell":6126,"Ġdisin":6127,"Ġdisease":6128,"Ġabund":6129,"Ġrobb":6130,"Ġexcept":6131,"agot":6132,"aged":6133,"Ġdesc":6134,"Ġriches":6135,"Whereof":6136,"Ġslight":6137,"Ġslipp":6138,"Ġflat":6139,"Ġbetide":6140,"Ġbread":6141,"Behold":6142,"Ġcouple":6143,"Ġparties":6144,"Ġpartner":6145,"idered":6146,"Ġclock":6147,"Ġprefer":6148,"Ġsweetly":6149,"ĠDian":6150,"ulls":6151,"Ġwritten":6152,"Ġscratch":6153,"Ġpresume":6154,"Ġpreserve":6155,"Ġnights":6156,"Ġworldly":6157,"perience":6158,"Ġrack":6159,"Ġraven":6160,"them":6161,"ably":6162,"ĠFIT":6163,"Ġdownright":6164,"Ġcontro":6165,"BAGO":6166,"ranch":6167,"Ġimper":6168,"Ġreputation":6169,"Ġafraid":6170,"Ġmightst":6171,"Ġstays":6172,"Ġrue":6173,"Ġleg":6174,"Ġlect":6175,"Ġlewd":6176,"loso":6177,"Ġrestore":6178,"Ġentrance":6179,"Ġtricks":6180,"Ġmoves":6181,"Ġbestow":6182,"Ġaccom":6183,"Ġended":6184,"Ġpurge":6185,"Ġpurple":6186,"Ġputting":6187,"Prove":6188,"Proceed":6189,"Proclaim":6190,"Ġsmil":6191,"Ġsmother":6192,"Ġtrain":6193,"Ġtravell":6194,"Ġbidding":6195,"Ġdrew":6196,"Ġearthly":6197,"Ġcouldst":6198,"Ġtren":6199,"Ġhopeful":6200,"GEORGE":6201,"Ġbrains":6202,"Ġcheque":6203,"Ġbridal":6204,"Ġconfound":6205,"being":6206,"Ġcop":6207,"Ġcoat":6208,"Ġmisfortune":6209,"Ġlanded":6210,"blood":6211,"Ġfalcon":6212,"Ġfalls":6213,"Ġbusy":6214,"Another":6215,"Ġstrict":6216,"Ġcounsell":6217,"Ġcourtier":6218,"Ġcourteous":6219,"Ġbuzz":6220,"Ġattain":6221,"Ġattorney":6222,"erest":6223,"Ġsounds":6224,"Ġsounded":6225,"Ġretired":6226,"Ġadvised":6227,"Ġrevenges":6228,"Ġstraw":6229,"Although":6230,"Ġprompt":6231,"Ġcram":6232,"Ġcontents":6233,"Ġvillains":6234,"Ġinteg":6235,"Ġkisses":6236,"aptain":6237,"Ġyields":6238,"upid":6239,"Ġwinters":6240,"Ġlambs":6241,"Ġbeats":6242,"Ġbeaten":6243,"acy":6244,"undy":6245,"unday":6246,"ventry":6247,"Ġchosen":6248,"Hadst":6249,"Ġentreaties":6250,"Ġdevilish":6251,"Ġboldly":6252,"Ġwooing":6253,"Ġinfer":6254,"Becomes":6255,"guard":6256,"Ġreadiness":6257,"Ġprofane":6258,"Ġdivor":6259,"Ġyouthful":6260,"Comes":6261,"Comfort":6262,"Ġterm":6263,"Ġsuitors":6264,"Ġstops":6265,"Ġcloudy":6266,"Ġmusicians":6267,"Ġdroop":6268,"Ġwax":6269,"Ġgrieves":6270,"Ġgrieved":6271,"chers":6272,"Ġskill":6273,"Ġsignal":6274,"Ġsignify":6275,"Ġcheerly":6276,"Ġprophes":6277,"Ġextreme":6278,"Ġtroubl":6279,"Ġsatisfaction":6280,"Ġdarkness":6281,"Ġexped":6282,"Ġflattering":6283,"Ġembra":6284,"Ġesteem":6285,"Ġbowels":6286,"Ġfrail":6287,"Ġhurl":6288,"Ġtowns":6289,"Ġsuddenly":6290,"spurgh":6291,"Ġcowardly":6292,"Ġlamentable":6293,"Ġowes":6294,"Ġeaten":6295,"Ġkinsmen":6296,"Ġmiddle":6297,"Ġdestruction":6298,"Ġdeparture":6299,"Plantagenet":6300,"Whiles":6301,"Ġfondly":6302,"Ġusurping":6303,"Above":6304,"ossess":6305,"Ġmildness":6306,"Ġinsol":6307,"Ġgladly":6308,"mediate":6309,"Ġapace":6310,"Ġships":6311,"Ġshop":6312,"Ġshoes":6313,"Ġobsequ":6314,"Ġtreasons":6315,"Ġcondemned":6316,"Ġtroubled":6317,"Ġlists":6318,"Ġstorms":6319,"Ġtemples":6320,"Ġmutinous":6321,"Ġpetty":6322,"Ġconquest":6323,"Ġgrandam":6324,"Ġgrandsire":6325,"Ġeldest":6326,"ĠAntigonus":6327,"Disp":6328,"EXTON":6329,"Ġbastards":6330,"Ġhelps":6331,"Ġamongst":6332,"Ġprovide":6333,"Ġgreeting":6334,"Ġministers":6335,"Neither":6336,"where":6337,"Ġconclud":6338,"Ġconclude":6339,"Ġdismiss":6340,"Officer":6341,"Ġimagine":6342,"Ġacquainted":6343,"Ġgifts":6344,"Ġghostly":6345,"Ġbehavior":6346,"Ġeleven":6347,"Ġrobes":6348,"Ġdesigns":6349,"Ġtempted":6350,"Ġheavier":6351,"Perhaps":6352,"Ġerrand":6353,"Ġwandering":6354,"Ġdetest":6355,"Ġweapons":6356,"Ġvanity":6357,"Ġaccusation":6358,"Shalt":6359,"Ġfrost":6360,"Ġpersuade":6361,"Ġdiscontented":6362,"Appear":6363,"Ġtestim":6364,"Ġhazard":6365,"ĠCaliban":6366,"ĠBlunt":6367,"Ġkeys":6368,"Ġinstantly":6369,"iveness":6370,"Ġfigure":6371,"Ġfurnish":6372,"Ġparents":6373,"Ġrecompense":6374,"Ġnobleness":6375,"ĠCoventry":6376,"ĠSTEPH":6377,"Ġprovoked":6378,"Ġintelligence":6379,"Ġfiend":6380,"Ġceremon":6381,"advised":6382,"Ġreckon":6383,"ĠLeontes":6384,"Ġreconcile":6385,"Ġunkindness":6386,"Ġpilgrimage":6387,"Ġcomplexion":6388,"Ġseized":6389,"Ġneglect":6390,"Ġvarlet":6391,"ĠMinola":6392,"ĠVenice":6393,"Ġblemish":6394,"Ġfreedom":6395,"Ġthieves":6396,"Ġgoddess":6397,"Ġproclamation":6398,"Ġsavage":6399,"Ġransom":6400,"Ġexample":6401,"Ġvelvet":6402,"Ġproportion":6403,"Ġtyrannous":6404,"Gaoler":6405,"Gardener":6406,"Lucentio":6407,"Towards":6408,"TMORELAND":6409,"WESTMORELAND":6410,"envolio":6411,"Ġnarrow":6412,"Ġphiloso":6413,"Ġherald":6414,"ednesday":6415,"Ġmembers":6416,"Ġallegiance":6417,"ĠCARLISLE":6418,"ĠRavenspurgh":6419,"Ġambitious":6420,"ĠSCROOP":6421,"ĠBurgundy":6422,"ĠFITZWATER":6423,"BAGOT":6424,"Ġintegrity":6425,"ĠSTEPHEN":6426,"Ġphilosophy":6427,"Ac":6428,"Af":6429,"Bound":6430,"Ca":6431,"Cont":6432,"Camillo":6433,"Catesby":6434,"Dep":6435,"Div":6436,"Fore":6437,"Five":6438,"Fall":6439,"Foul":6440,"Fetch":6441,"Gra":6442,"Gives":6443,"Grace":6444,"Hie":6445,"Harry":6446,"Hang":6447,"Justice":6448,"Kind":6449,"Lies":6450,"Lead":6451,"Mur":6452,"Part":6453,"Peter":6454,"Rel":6455,"Sit":6456,"Send":6457,"Ten":6458,"Tra":6459,"Talk":6460,"Touch":6461,"Teach":6462,"Truly":6463,"Vouchsafe":6464,"Verily":6465,"Wert":6466,"Zounds":6467,"av":6468,"ape":6469,"aving":6470,"bes":6471,"bour":6472,"bell":6473,"board":6474,"cat":6475,"cock":6476,"down":6477,"ech":6478,"eves":6479,"gic":6480,"gues":6481,"hors":6482,"ipt":6483,"join":6484,"kest":6485,"know":6486,"lor":6487,"len":6488,"low":6489,"lain":6490,"last":6491,"lace":6492,"lock":6493,"liness":6494,"longs":6495,"met":6496,"miss":6497,"mistress":6498,"nib":6499,"ob":6500,"oble":6501,"open":6502,"post":6503,"pite":6504,"pular":6505,"pothecary":6506,"ris":6507,"rish":6508,"roof":6509,"sent":6510,"tin":6511,"ted":6512,"tell":6513,"tong":6514,"tied":6515,"trees":6516,"uge":6517,"uild":6518,"ually":6519,"vir":6520,"wh":6521,"wer":6522,"was":6523,"work":6524,"women":6525,"ycor":6526,"ĠFirst":6527,"Ġtrow":6528,"Ġtie":6529,"Ġtorn":6530,"Ġtaking":6531,"heard":6532,"Ġafe":6533,"Ġsow":6534,"Ġsand":6535,"Ġsong":6536,"Ġsixt":6537,"Ġmom":6538,"Ġmas":6539,"Ġmouse":6540,"Ġmates":6541,"Ġmurde":6542,"Ġmask":6543,"inu":6544,"inal":6545,"inies":6546,"inces":6547,"Ġwore":6548,"Ġwipe":6549,"had":6550,"hage":6551,"Ġbot":6552,"Ġbul":6553,"Ġbows":6554,"Ġbail":6555,"Ġbounty":6556,"Ġfre":6557,"Ġfan":6558,"Ġfif":6559,"Ġfil":6560,"Ġfrant":6561,"Ġfount":6562,"Ġfift":6563,"Ġfingers":6564,"Ġfrank":6565,"Ġfolks":6566,"onio":6567,"Ġdot":6568,"Ġdine":6569,"Ġdried":6570,"Ġdined":6571,"Ġdash":6572,"Ġdiest":6573,"Ġdrift":6574,"Ġcord":6575,"Ġcro":6576,"Ġcab":6577,"Ġcool":6578,"Ġcrows":6579,"Ġcords":6580,"ening":6581,"ened":6582,"enches":6583,"Ġnort":6584,"Ġnigh":6585,"Ġnamed":6586,"Ġnimble":6587,"Ġlute":6588,"Ġlads":6589,"Ġlying":6590,"Ġlinger":6591,"Ġthw":6592,"Ġthrown":6593,"Ġhill":6594,"Ġpow":6595,"Ġpour":6596,"Ġpest":6597,"Ġpant":6598,"Ġpup":6599,"Ġpict":6600,"Ġheel":6601,"Ġheinous":6602,"otland":6603,"Ġgust":6604,"Ġgather":6605,"Ġgaunt":6606,"Ġbeef":6607,"see":6608,"Ġinward":6609,"Ġhag":6610,"Ġhaunt":6611,"lect":6612,"aying":6613,"etition":6614,"Ġmeed":6615,"Ġmeal":6616,"iments":6617,"Ġnotice":6618,"Ġforso":6619,"Ġug":6620,"Ġwears":6621,"Ġeight":6622,"Ġeff":6623,"advent":6624,"ril":6625,"rial":6626,"Ġstink":6627,"Ġstag":6628,"Ġsteep":6629,"Ġstiff":6630,"Ġkites":6631,"iders":6632,"asant":6633,"Ġrein":6634,"Ġrevive":6635,"rament":6636,"Ġlick":6637,"Ġlief":6638,"urb":6639,"uring":6640,"alks":6641,"Ġashes":6642,"Ġassem":6643,"Ġdeer":6644,"Ġdece":6645,"Ġdeform":6646,"roach":6647,"Ġshade":6648,"Ġdole":6649,"amy":6650,"amity":6651,"aments":6652,"Ġnod":6653,"Ġnoon":6654,"ushi":6655,"anders":6656,"Ġsearch":6657,"Throw":6658,"Ġann":6659,"Ġancest":6660,"Ġlodge":6661,"Ġloathed":6662,"ella":6663,"Ġspark":6664,"Ġspider":6665,"Ġspurs":6666,"ĠCambio":6667,"ĠCupid":6668,"Ġvul":6669,"Ġvass":6670,"Ġvouch":6671,"Ġvial":6672,"Ġventure":6673,"ctor":6674,"ousins":6675,"Ġwhatsoever":6676,"Ġshot":6677,"Ġshown":6678,"ules":6679,"arthage":6680,"Ġprate":6681,"Ġprint":6682,"Ġprating":6683,"Ġmanhood":6684,"ĠEven":6685,"Ġamaz":6686,"icle":6687,"ication":6688,"ived":6689,"ively":6690,"Ġblot":6691,"Ġblue":6692,"Ġblown":6693,"Ġbliss":6694,"Ġblaze":6695,"Ġblushing":6696,"embroke":6697,"Ġtheme":6698,"ĠLove":6699,"Ġthereto":6700,"Ġcanop":6701,"eptune":6702,"Ġherein":6703,"Ġswoon":6704,"Ġbranch":6705,"Ġorator":6706,"ĠSly":6707,"ĠSunday":6708,"ĠSycor":6709,"ĠBagot":6710,"ĠBenvolio":6711,"Ġarise":6712,"Ġunlike":6713,"Ġunruly":6714,"Ġworms":6715,"Ġworser":6716,"ĠHave":6717,"Ġmustard":6718,"Ġgraces":6719,"Ġseeks":6720,"Ġlikeli":6721,"Ġshoulders":6722,"ĠPoor":6723,"Ġsack":6724,"Ġsaved":6725,"Ġplan":6726,"peian":6727,"ĠWest":6728,"ĠWednesday":6729,"Ġenforced":6730,"Ġenrich":6731,"unis":6732,"uned":6733,"fulness":6734,"Ġrhe":6735,"Ġranc":6736,"Ġrush":6737,"Ġroof":6738,"Ġrushes":6739,"Ġpock":6740,"Ġpopular":6741,"death":6742,"ption":6743,"Ġoffences":6744,"Ġdiso":6745,"Ġalar":6746,"Ġaloud":6747,"Ġalso":6748,"ABRA":6749,"Ġbrotherhood":6750,"Ġfox":6751,"Ġroses":6752,"Ġroaring":6753,"Ġexceed":6754,"Ġrig":6755,"Ġleap":6756,"Ġleaving":6757,"Ġslily":6758,"Ġflock":6759,"ĠTime":6760,"ĠTew":6761,"ĠTroy":6762,"ĠTullus":6763,"ĠTribunes":6764,"ffic":6765,"ĠKent":6766,"Ġcommends":6767,"Ġcler":6768,"Ġsweetest":6769,"Ġplebe":6770,"Ġperfection":6771,"Ġwring":6772,"awful":6773,"Ġtrim":6774,"Ġotherwise":6775,"Ġmeaner":6776,"lier":6777,"Ġscore":6778,"Ġnighting":6779,"Ġrace":6780,"Thank":6781,"these":6782,"ĠFourth":6783,"Ġdownfall":6784,"together":6785,"Ġappears":6786,"Ġcontri":6787,"GREY":6788,"Ġwhist":6789,"Northumberland":6790,"Ġmothers":6791,"Ġeverlast":6792,"ksbury":6793,"ĠJup":6794,"Ġrum":6795,"Ġpeer":6796,"Ġlevel":6797,"Ġharl":6798,"Ġharvest":6799,"Ġharbour":6800,"Ġrests":6801,"Ġsettled":6802,"attern":6803,"oses":6804,"Ġmoe":6805,"Ġmoving":6806,"Ġmoiety":6807,"Ġbestri":6808,"Ġhenceforth":6809,"Ġaccomp":6810,"Ġfaced":6811,"ulting":6812,"Ġendured":6813,"Ġpursue":6814,"Ġcompare":6815,"Ġcompound":6816,"Ġchamp":6817,"Ġdearth":6818,"twould":6819,"Ġtrees":6820,"Ġhomely":6821,"Ġbrand":6822,"isterous":6823,"Ġcharges":6824,"Ġchances":6825,"Ġchanging":6826,"Ġconfidence":6827,"Ġconfeder":6828,"Ġcoast":6829,"Ġcozen":6830,"Ġimpeach":6831,"Ġlights":6832,"Ġroyalties":6833,"Ġbeside":6834,"Ġfully":6835,"Ġdevour":6836,"Ġwronged":6837,"Ġmischief":6838,"Ġlasting":6839,"blance":6840,"Ġafterward":6841,"Ġthousands":6842,"Ġholding":6843,"Ġpatron":6844,"Ġfallen":6845,"Ġfalling":6846,"Ġstrife":6847,"ivant":6848,"Ġhumility":6849,"Ġbelong":6850,"Ġbelieved":6851,"Ġtalking":6852,"Ġgrim":6853,"Ġgrass":6854,"Ġdram":6855,"Ġserious":6856,"Ġboisterous":6857,"Ġadvoc":6858,"Ġmerchant":6859,"Ġrevenue":6860,"Ġdoubtful":6861,"Ġdancing":6862,"Ġpersons":6863,"Ġdischarge":6864,"Attend":6865,"Ġcommands":6866,"Ġwindow":6867,"ittany":6868,"Ġcrab":6869,"Ġhangman":6870,"Ġproudest":6871,"Twixt":6872,"Ġintents":6873,"Ġyielding":6874,"Ġbreaks":6875,"Ġmerri":6876,"Ġtemple":6877,"Ġrequire":6878,"Ġdefy":6879,"Ġlately":6880,"Ġtenderness":6881,"Ġsadly":6882,"Ġchose":6883,"Ġgrowth":6884,"Ġasking":6885,"Ġreported":6886,"shine":6887,"Ġwatery":6888,"ĠMontagues":6889,"Ġbattles":6890,"Ġcrying":6891,"Ġlearning":6892,"Ġlearned":6893,"Ġentreaty":6894,"Ġdevils":6895,"Ġmurders":6896,"Ġsilk":6897,"Ġboldness":6898,"Ġruns":6899,"Ġrevengeful":6900,"Happ":6901,"Happy":6902,"voc":6903,"Ġspeedy":6904,"Ġquarter":6905,"Ġconfessor":6906,"ĠNed":6907,"ĠNeptune":6908,"Ġforehead":6909,"Ġterr":6910,"Ġminutes":6911,"Ġrecreant":6912,"Ġdelicate":6913,"Ġdespised":6914,"Ġbosoms":6915,"Ġharmony":6916,"Ġguiltless":6917,"Ġattended":6918,"Ġmurderous":6919,"Ġveil":6920,"Ġdistra":6921,"Ġdistress":6922,"Ġacts":6923,"Ġwonderful":6924,"Ġsingular":6925,"Ġmusician":6926,"Ġclosed":6927,"Ġwaits":6928,"Ġburden":6929,"Ġsuffering":6930,"Ġbreasts":6931,"Ġwedded":6932,"Ġdukes":6933,"shearing":6934,"Ġwisely":6935,"Ġfeasts":6936,"eshrew":6937,"Ġgroom":6938,"Ġredempt":6939,"Ġbeggars":6940,"Read":6941,"Ready":6942,"Swear":6943,"ĠFortune":6944,"Ġcrim":6945,"Ġcrook":6946,"Ġcrush":6947,"standing":6948,"Ġinterrupt":6949,"Ġundo":6950,"Ġevils":6951,"Ġsumm":6952,"ĠVolscians":6953,"ĠVolscian":6954,"Ġvisitation":6955,"Ġbowl":6956,"Ġbaby":6957,"Ġframed":6958,"Ġsafely":6959,"Ġsafeguard":6960,"Ġknocks":6961,"Ġsacrament":6962,"Ġleaden":6963,"Ġlamentation":6964,"ĠIsabella":6965,"Ġignoble":6966,"Ġclean":6967,"Ġoppression":6968,"Ġapproved":6969,"Ġapprobation":6970,"Ġcomplaint":6971,"Ġdrinking":6972,"Ġsurfeit":6973,"Ġmidst":6974,"Ġmidwife":6975,"Ġdestiny":6976,"Ġsmallest":6977,"Confess":6978,"Ġeasily":6979,"Stands":6980,"Ġdamnable":6981,"Ġutmost":6982,"Ġmildly":6983,"Ġcauses":6984,"Ġpuiss":6985,"Ġpitied":6986,"Ġinjustice":6987,"Ġinsinu":6988,"Ġproceedings":6989,"Ġapart":6990,"Ġmedic":6991,"Ġmodel":6992,"Ġfamiliar":6993,"Ġreigns":6994,"Ġprosperity":6995,"Ġlenity":6996,"Ġlowly":6997,"angling":6998,"Ġbending":6999,"Ġslanderous":7000,"ĠCapulets":7001,"Ġmountain":7002,"Ġunpro":7003,"Ġunworthy":7004,"Ġprovided":7005,"Ġplants":7006,"Ġneighbours":7007,"Ġglasses":7008,"Ġextremes":7009,"when":7010,"Ġconclusion":7011,"Ġimagination":7012,"rateful":7013,"Ġunlook":7014,"Ġunluck":7015,"ĠAlban":7016,"govern":7017,"Ġavoided":7018,"Ġeager":7019,"Ġloathsome":7020,"Ġloyalty":7021,"Ġaims":7022,"Ġsensible":7023,"Ġcrept":7024,"Ġpilot":7025,"Ġstatutes":7026,"Ġchiefest":7027,"cannot":7028,"Ġcalamity":7029,"Ġpinch":7030,"Ġinfected":7031,"Ġstocks":7032,"Ġdearer":7033,"Ġangels":7034,"Ġlodged":7035,"Ġlodging":7036,"Ġpursuit":7037,"Ġconqueror":7038,"Prepare":7039,"Ġtutor":7040,"Ġfleet":7041,"Ġfrozen":7042,"ARCHBISHOP":7043,"Ġadvanced":7044,"Ġcorruption":7045,"Ġmagist":7046,"Ġconcerns":7047,"Ġcloak":7048,"Ġwhoreson":7049,"Ġcompassion":7050,"bric":7051,"Ġstolen":7052,"Ġsprings":7053,"Ġswelling":7054,"Ġabhorr":7055,"Ġadverse":7056,"Ġperjured":7057,"Suppose":7058,"Ġmultitude":7059,"Ġnails":7060,"Ġlinea":7061,"Ġpiercing":7062,"Ġinquire":7063,"Ġclimate":7064,"Ġwrinkled":7065,"Ġwhispering":7066,"Ġcorrection":7067,"ĠAntium":7068,"Ġcircumstance":7069,"Lieutenant":7070,"Sometime":7071,"craft":7072,"favour":7073,"Ġtaunts":7074,"Ġmoody":7075,"Ġsteward":7076,"Ġmanifest":7077,"Ġbranches":7078,"Ġunwilling":7079,"ĠTarpeian":7080,"Ġincensed":7081,"Ġsubstitute":7082,"Ġflatterers":7083,"Mistake":7084,"Ġtiger":7085,"Ġmilk":7086,"Ġnumbers":7087,"Ġhinder":7088,"Ġpearl":7089,"Ġbereft":7090,"Ġornaments":7091,"ĠBrittany":7092,"Ġunseen":7093,"Ġdisgraced":7094,"Ġtrifles":7095,"Ġserpent":7096,"Ġsufficient":7097,"Ġestimation":7098,"Ġoccupation":7099,"Break":7100,"Virtue":7101,"Ġeternal":7102,"Ġtardy":7103,"Ġsurpr":7104,"Ġfantast":7105,"Ġlunatic":7106,"Ġhistory":7107,"Ġconsequence":7108,"Ġmarshal":7109,"Ġmarvellous":7110,"Ġprophesy":7111,"Ġceremonious":7112,"Murder":7113,"Ġafeard":7114,"Ġsixteen":7115,"Ġmoment":7116,"Ġmurdered":7117,"Ġfrantic":7118,"Ġfifteen":7119,"Ġcabin":7120,"Ġnorthern":7121,"Ġforsooth":7122,"adventure":7123,"ĠSycorax":7124,"Ġlikelihood":7125,"ABRAHAM":7126,"ĠTewksbury":7127,"ĠJupiter":7128,"Ġadvocate":7129,"Ġredemption":7130,"Again":7131,"Aff":7132,"AGE":7133,"Aumerle":7134,"Apollo":7135,"Apothecary":7136,"Ban":7137,"BON":7138,"Bold":7139,"Bless":7140,"Cle":7141,"Cast":7142,"Cold":7143,"Carry":7144,"Cursed":7145,"Den":7146,"Dest":7147,"Def":7148,"DION":7149,"Direct":7150,"Er":7151,"End":7152,"Every":7153,"EMI":7154,"Fit":7155,"Fill":7156,"Fourth":7157,"Gain":7158,"Grand":7159,"Groom":7160,"Ho":7161,"Har":7162,"High":7163,"Huntsman":7164,"Imp":7165,"Just":7166,"Join":7167,"Keeper":7168,"Left":7169,"Music":7170,"NATH":7171,"Open":7172,"Obey":7173,"Pres":7174,"PAGE":7175,"Ren":7176,"Run":7177,"Ratcliff":7178,"Sus":7179,"Sic":7180,"Trust":7181,"Ur":7182,"Wife":7183,"Worse":7184,"ais":7185,"aches":7186,"avish":7187,"bon":7188,"bot":7189,"bat":7190,"bid":7191,"bur":7192,"best":7193,"bel":7194,"bles":7195,"bearer":7196,"co":7197,"cis":7198,"cour":7199,"cri":7200,"core":7201,"cast":7202,"count":7203,"cured":7204,"cals":7205,"dra":7206,"dist":7207,"daughter":7208,"door":7209,"duce":7210,"eks":7211,"fly":7212,"fend":7213,"found":7214,"franch":7215,"gea":7216,"gage":7217,"grown":7218,"gled":7219,"greed":7220,"hur":7221,"honour":7222,"iqu":7223,"ivers":7224,"jud":7225,"kn":7226,"kens":7227,"lm":7228,"lu":7229,"leness":7230,"mar":7231,"mal":7232,"make":7233,"mind":7234,"much":7235,"mission":7236,"nut":7237,"name":7238,"never":7239,"nothing":7240,"oa":7241,"og":7242,"overy":7243,"occ":7244,"ops":7245,"opher":7246,"ph":7247,"po":7248,"pre":7249,"por":7250,"put":7251,"phan":7252,"pers":7253,"pres":7254,"pire":7255,"ples":7256,"point":7257,"picious":7258,"sion":7259,"spe":7260,"sick":7261,"sign":7262,"such":7263,"side":7264,"somet":7265,"scape":7266,"ton":7267,"ule":7268,"uish":7269,"uced":7270,"ukes":7271,"vil":7272,"vance":7273,"wit":7274,"who":7275,"why":7276,"weet":7277,"were":7278,"witted":7279,"yp":7280,"yet":7281,"ĠU":7282,"Ġire":7283,"ĠNo":7284,"ĠThus":7285,"Ġton":7286,"Ġtur":7287,"Ġtea":7288,"Ġtink":7289,"Ġtreat":7290,"Ġtents":7291,"Ġtainted":7292,"Ġtailor":7293,"Ġtamed":7294,"Ġtumble":7295,"Ġack":7296,"Ġafore":7297,"Ġape":7298,"ouches":7299,"Ġsith":7300,"Ġsine":7301,"Ġsitting":7302,"Ġsiege":7303,"Ġmast":7304,"Ġmant":7305,"Ġmuff":7306,"Ġmiles":7307,"iner":7308,"Ġwester":7309,"Ġwilful":7310,"reth":7311,"report":7312,"has":7313,"haeth":7314,"Ġbought":7315,"Ġbishop":7316,"isc":7317,"isher":7318,"isome":7319,"oricles":7320,"Ġfet":7321,"Ġfem":7322,"Ġfits":7323,"Ġfulf":7324,"erous":7325,"lly":7326,"lling":7327,"itan":7328,"once":7329,"Ġder":7330,"Ġdom":7331,"Ġded":7332,"Ġdil":7333,"Ġdame":7334,"Ġdiet":7335,"Ġdrows":7336,"Ġdumb":7337,"Ġcand":7338,"Ġcave":7339,"Ġcuck":7340,"Ġcrest":7341,"Ġcrew":7342,"Ġcurious":7343,"Ġcushi":7344,"Ġcousins":7345,"Ġnon":7346,"Ġnaught":7347,"Ġnourish":7348,"Ġlink":7349,"Ġlace":7350,"Ġloose":7351,"Ġlung":7352,"Ġlends":7353,"Ġlatest":7354,"Ġyare":7355,"Ġyester":7356,"Ġthrees":7357,"arison":7358,"Ġhood":7359,"Ġom":7360,"Ġobt":7361,"Ġtoe":7362,"Ġtoken":7363,"Ġtoads":7364,"Ġtower":7365,"Ġpine":7366,"Ġpate":7367,"Ġpuff":7368,"Ġpedant":7369,"Ġpounds":7370,"Ġpattern":7371,"Ġheal":7372,"Ġheigh":7373,"stra":7374,"stone":7375,"strong":7376,"strel":7377,"owick":7378,"ank":7379,"omenes":7380,"Ġgam":7381,"Ġgame":7382,"Ġgaz":7383,"Ġgrum":7384,"Ġgeld":7385,"Ġgulf":7386,"Ġgloves":7387,"ato":7388,"atient":7389,"Ġbeet":7390,"Ġbeads":7391,"seth":7392,"Ġinve":7393,"Ġinch":7394,"Ġinvent":7395,"Ġinherit":7396,"cel":7397,"ceives":7398,"ceiving":7399,"Ġhaw":7400,"Ġhall":7401,"Ġhalt":7402,"ediment":7403,"Ġmellow":7404,"imo":7405,"ims":7406,"Ġnotes":7407,"Ġnotwith":7408,"chool":7409,"child":7410,"Ġforces":7411,"key":7412,"Ġweed":7413,"illed":7414,"Ġelo":7415,"Ġebb":7416,"herited":7417,"entious":7418,"ado":7419,"adem":7420,"adise":7421,"rion":7422,"riam":7423,"rief":7424,"rieve":7425,"Ġstu":7426,"Ġstem":7427,"Ġstark":7428,"Ġstaff":7429,"ghts":7430,"idd":7431,"iding":7432,"asy":7433,"asing":7434,"asures":7435,"Ġrent":7436,"Ġrender":7437,"Ġresem":7438,"raken":7439,"rails":7440,"Ġliar":7441,"Ġliqu":7442,"urvy":7443,"Ġsolic":7444,"Ġashore":7445,"Ġdeceive":7446,"Ġdefect":7447,"aining":7448,"verse":7449,"verdone":7450,"estiv":7451,"eap":7452,"earest":7453,"Ġdoct":7454,"Ġdoves":7455,"Ġdoors":7456,"Ġnoses":7457,"Ġbutter":7458,"using":7459,"usiness":7460,"ifth":7461,"Ġsear":7462,"Ġsequ":7463,"Ġallay":7464,"Ġallies":7465,"Ġsued":7466,"Ġsung":7467,"Ġsunder":7468,"Ġsugg":7469,"Ġsugar":7470,"Ġherbs":7471,"thw":7472,"throw":7473,"thrift":7474,"Ġansw":7475,"Ġantic":7476,"terate":7477,"Ġloins":7478,"Ġlocks":7479,"Ġspar":7480,"Ġsped":7481,"Ġspilt":7482,"Ġspices":7483,"Ġspiders":7484,"Ġfaction":7485,"ĠCle":7486,"ĠCaptain":7487,"ĠCarthage":7488,"Ġnegl":7489,"hoeb":7490,"Ġknit":7491,"ANIEL":7492,"ĠRo":7493,"Ġvi":7494,"Ġvine":7495,"Ġvig":7496,"cts":7497,"Ġshout":7498,"Ġshower":7499,"ulous":7500,"antime":7501,"quet":7502,"athom":7503,"Whate":7504,"ĠMadam":7505,"Ġwhet":7506,"Ġwheel":7507,"Ġamend":7508,"ending":7509,"icial":7510,"bled":7511,"iel":7512,"ivered":7513,"Ġblister":7514,"Ġblade":7515,"venient":7516,"ĠGentle":7517,"Forth":7518,"Forbear":7519,"Forgive":7520,"Forbid":7521,"olar":7522,"olve":7523,"olour":7524,"ĠLam":7525,"ĠLod":7526,"ĠLeave":7527,"Ġhatch":7528,"Ġcanker":7529,"feel":7530,"feits":7531,"ressed":7532,"ately":7533,"Ġbrass":7534,"ppet":7535,"pped":7536,"Ġorphan":7537,"allel":7538,"ĠShe":7539,"ĠSweet":7540,"Ġusure":7541,"ĠBes":7542,"ĠBraken":7543,"Ġarch":7544,"Ġargu":7545,"Ġarbit":7546,"Ġunple":7547,"Ġunrest":7548,"Ġworshi":7549,"ĠHa":7550,"ĠHear":7551,"ĠHerc":7552,"elting":7553,"Ġquake":7554,"Ġquaint":7555,"Ġjade":7556,"Ġjoc":7557,"Ġmusty":7558,"Ġgraft":7559,"Ġhole":7560,"cip":7561,"cially":7562,"Ġprog":7563,"Ġprocure":7564,"ĠPercy":7565,"ĠPatri":7566,"ĠPembroke":7567,"ĠPhaeth":7568,"ĠPhoeb":7569,"Ġsap":7570,"Ġmadly":7571,"Ġmadest":7572,"Ġmadman":7573,"ums":7574,"umes":7575,"umps":7576,"uments":7577,"umny":7578,"Ġplate":7579,"Ġplaints":7580,"people":7581,"ĠWh":7582,"ĠWelcome":7583,"ĠWales":7584,"ĠWalter":7585,"owned":7586,"Ġrats":7587,"Ġrites":7588,"Ġrising":7589,"Ġpox":7590,"Ġpoll":7591,"ptory":7592,"ĠAh":7593,"ĠAm":7594,"ĠAr":7595,"Ġtruer":7596,"Thoughts":7597,"Ġmarr":7598,"Ġmarble":7599,"Ġmariners":7600,"Ins":7601,"Infer":7602,"acks":7603,"Ġdisl":7604,"Ġdisorder":7605,"Ġaloof":7606,"Ġaltogether":7607,"Ġheap":7608,"oyal":7609,"Ġhears":7610,"echer":7611,"eches":7612,"Ġabst":7613,"Ġabod":7614,"Ġfold":7615,"Ġfoil":7616,"Ġearl":7617,"Ġearldom":7618,"Ġrode":7619,"Ġrocks":7620,"Ġexclaim":7621,"Ġexact":7622,"Ġexperience":7623,"Ġlooker":7624,"agine":7625,"ervation":7626,"aved":7627,"Ġripen":7628,"Ġridd":7629,"Ġrivers":7630,"tised":7631,"Wherefore":7632,"Ġslack":7633,"Ġwarn":7634,"Ġflame":7635,"ĠTur":7636,"ĠTunis":7637,"ffer":7638,"Ġbreeding":7639,"izab":7640,"sses":7641,"Ġclap":7642,"Ġprec":7643,"Ġpreced":7644,"Ġprerog":7645,"Ġsweets":7646,"Ġprays":7647,"Ġnobleman":7648,"Ġpledge":7649,"ĠDoricles":7650,"Ġperd":7651,"Ġperf":7652,"Ġpermit":7653,"Ġwrangling":7654,"aws":7655,"Ġtrades":7656,"Ġwayward":7657,"Ġheadstrong":7658,"lip":7659,"Ġscour":7660,"Ġscru":7661,"Ġscape":7662,"Ġpreserved":7663,"Ġqueens":7664,"Ġchival":7665,"Ġrages":7666,"Ġraging":7667,"Ġraiment":7668,"Ġragged":7669,"their":7670,"abour":7671,"ĠFear":7672,"ĠFran":7673,"Ġapply":7674,"Ġappell":7675,"Ġappoint":7676,"Ġarmed":7677,"Norfolk":7678,"sweet":7679,"Ġbegot":7680,"range":7681,"Ġmale":7682,"Ġimmediate":7683,"Ġlongest":7684,"ĠMarch":7685,"Ġreplied":7686,"Ġrepossess":7687,"Ġrepetition":7688,"Ġfriendship":7689,"Ġafoot":7690,"ĠJer":7691,"ĠJun":7692,"ĠJOHN":7693,"ĠJesu":7694,"Ġconspir":7695,"Ġconsumed":7696,"Ġconsidered":7697,"Ġperem":7698,"Ġlevy":7699,"Ġentrails":7700,"Ġlieutenant":7701,"chelor":7702,"Ġresort":7703,"Ġrescue":7704,"Ġtried":7705,"Ġmoan":7706,"Ġfollies":7707,"Ġprivy":7708,"Thyself":7709,"Ġchaf":7710,"Ġchap":7711,"Ġpeaceful":7712,"Ġelsewhere":7713,"ailing":7714,"asonable":7715,"Ġbackward":7716,"Ġcounted":7717,"Ġladyship":7718,"Ġneedle":7719,"Ġneedless":7720,"Ġtrembles":7721,"Ġhighway":7722,"Stanley":7723,"Ġhusbands":7724,"Ġbanquet":7725,"Ġminded":7726,"Ġbraved":7727,"Ġchest":7728,"Ġbribe":7729,"Ġshowers":7730,"Ġconfer":7731,"Ġconfines":7732,"Ġconfusion":7733,"Ġcoz":7734,"Ġcoal":7735,"Ġcoals":7736,"Ġcaused":7737,"Ġglories":7738,"Ġimpart":7739,"Ġimpud":7740,"Ġimpatience":7741,"Ġimpression":7742,"Ġimpatient":7743,"Ġimpediment":7744,"Ġbodes":7745,"Ġmistaking":7746,"Ġlightly":7747,"Ġlightness":7748,"Ġnatures":7749,"Ġpardons":7750,"Claudio":7751,"Ġbeseem":7752,"Ġhappier":7753,"Ġdevice":7754,"blown":7755,"Ġunderne":7756,"Ġundergo":7757,"Ġkilled":7758,"Ġfollowing":7759,"Ġfarm":7760,"Ġsunshine":7761,"Ġbush":7762,"Any":7763,"Ġstreet":7764,"Ġstream":7765,"Ġturned":7766,"Ġcomforts":7767,"Ġcomfortable":7768,"Ġsleeps":7769,"Ġsleepy":7770,"itories":7771,"Ġwelcomes":7772,"Ġthankful":7773,"Ġbox":7774,"Ġboon":7775,"Ġboat":7776,"Ġfights":7777,"Ġfighting":7778,"holds":7779,"Ġfalsely":7780,"plish":7781,"Ġmerciful":7782,"Ġmatters":7783,"Ġassault":7784,"Ġprisoners":7785,"Ġdangers":7786,"Ġdreamt":7787,"enerate":7788,"Ġstrait":7789,"Ġdischarged":7790,"Ġcommanding":7791,"Ġdared":7792,"Twill":7793,"Twice":7794,"Twenty":7795,"comp":7796,"Ġsisterhood":7797,"Ġfouler":7798,"versy":7799,"Ġdenial":7800,"Ġawry":7801,"Ġmerrim":7802,"Ġsupport":7803,"Ġsuppose":7804,"Ġsuppli":7805,"Ġbeating":7806,"Ġrequires":7807,"Ġrequired":7808,"Ġvalue":7809,"Ġaffright":7810,"Ġwoeful":7811,"Ġtenderly":7812,"Ġreturned":7813,"mph":7814,"mpet":7815,"Ġdeeper":7816,"Ġdeeply":7817,"Ġfootman":7818,"Ġchop":7819,"Ġcoldly":7820,"Ġnursed":7821,"azon":7822,"Ġplucks":7823,"shining":7824,"xton":7825,"Ġairy":7826,"Ġsuffice":7827,"Ġpastime":7828,"Ġfasting":7829,"Ġsilken":7830,"Ġstrongly":7831,"Canst":7832,"Ġpossessed":7833,"voke":7834,"voided":7835,"Ġinfring":7836,"Ġinfirm":7837,"Ġprofan":7838,"Ġprofits":7839,"Ġconfession":7840,"ĠNature":7841,"Ġmocking":7842,"Ġmockery":7843,"Ġforest":7844,"Ġdivided":7845,"Ġdivines":7846,"Ġdivision":7847,"Ġcarries":7848,"Ġposterity":7849,"Ġcounsels":7850,"Command":7851,"Commit":7852,"Ġterrible":7853,"Ġminstrel":7854,"Ġinconstant":7855,"Ġrecover":7856,"Ġresolute":7857,"nowledge":7858,"Ġharmless":7859,"ĠHector":7860,"Ġagreed":7861,"Ġwhipt":7862,"Ġdishon":7863,"Ġdisting":7864,"Ġdisturb":7865,"Ġdistressed":7866,"Ġtribune":7867,"Ġtribute":7868,"Ġdraws":7869,"Ġactor":7870,"Ġstirs":7871,"Ġstirring":7872,"Ġbreathes":7873,"Ġclosely":7874,"Ġforgiveness":7875,"Ġsufferance":7876,"Ġskulls":7877,"Ġsigns":7878,"Ġwisest":7879,"Ġregiment":7880,"Ġpoisonous":7881,"Ġcheerfully":7882,"shepherd":7883,"Ġtax":7884,"Ġdireful":7885,"Ġpays":7886,"Ġsuccor":7887,"Ġblessings":7888,"Ġbleed":7889,"Ġbleeds":7890,"Ġinterchange":7891,"Ġembass":7892,"Ġmalign":7893,"Ġhurried":7894,"Ġchamberlain":7895,"Ġcowardice":7896,"Ġlimits":7897,"Ġscorns":7898,"Ġwitnesses":7899,"Ġbroad":7900,"Ġcreated":7901,"Ġcreatures":7902,"Ġcaparison":7903,"ĠChristopher":7904,"Ġidly":7905,"Ġhideous":7906,"Ġbeastly":7907,"Ġrebel":7908,"Ġrebuke":7909,"Ġscarlet":7910,"Ġsecrets":7911,"Ġfills":7912,"Ġstrumpet":7913,"Ġpuppet":7914,"Ġinjurious":7915,"Ġinjuries":7916,"Ġinsulting":7917,"Ġinnocence":7918,"Ġadmit":7919,"Ġadmir":7920,"Ġadmitted":7921,"Ġfamish":7922,"Ġgovernor":7923,"Enough":7924,"Proud":7925,"Ġscholar":7926,"Ġmutiny":7927,"Ġlustful":7928,"Ġthreats":7929,"Ġindiffe":7930,"Ġindirect":7931,"Ġsolely":7932,"Ġgrandfather":7933,"Ġsafer":7934,"Ġsentenced":7935,"Ġdrunkard":7936,"Belike":7937,"Heart":7938,"Measure":7939,"Meantime":7940,"piring":7941,"Ġmounting":7942,"Ġfeat":7943,"Ġcaptive":7944,"ĠAntonio":7945,"Ġcontrad":7946,"Ġdegrees":7947,"Ġdemands":7948,"Ġremedies":7949,"Ġunderstanding":7950,"Ġgreetings":7951,"Ġtriumphs":7952,"Ġfarthest":7953,"Ġfaintly":7954,"Ġdwells":7955,"Ġthroats":7956,"Ġhunger":7957,"Ġgait":7958,"Ġgaol":7959,"Ġgape":7960,"Ġgaoler":7961,"Ġgentler":7962,"Ġchastity":7963,"Ġchastisement":7964,"Ġmiseries":7965,"Ġextremest":7966,"Ġscarcely":7967,"whelm":7968,"Ġfirmly":7969,"Ġholid":7970,"Ġinclination":7971,"Ġrelig":7972,"Ġunborn":7973,"Ġbootless":7974,"Ġconditions":7975,"Ġschoolmaster":7976,"Ġfruitful":7977,"Ġbald":7978,"Ġbachelor":7979,"Ġfeeding":7980,"Ġstooping":7981,"Ġunlawful":7982,"ĠAlas":7983,"therefore":7984,"Ġimportune":7985,"Ġprophecy":7986,"portion":7987,"Ġdecay":7988,"Ġknightly":7989,"Ġknighthood":7990,"Ġshrink":7991,"Ġroundly":7992,"Ġfrighted":7993,"Ġassistance":7994,"Ġdelights":7995,"Ġutterance":7996,"actors":7997,"Ġcreate":7998,"Ġlouder":7999,"Ġstarve":8000,"Ġjealousies":8001,"Ġrascals":8002,"Ġtreachery":8003,"Ġerror":8004,"Ġcalumny":8005,"Ġphysician":8006,"Ġweighty":8007,"Ġsupreme":8008,"runes":8009,"Ġpursued":8010,"Repent":8011,"Shame":8012,"paration":8013,"Ġwolves":8014,"Ġwonders":8015,"Ġbaseness":8016,"Ġbudge":8017,"Ġdiadem":8018,"Ġbeware":8019,"Ġrewards":8020,"Ġpronounced":8021,"Ġambition":8022,"Ġargos":8023,"ĠFlore":8024,"ĠFloriz":8025,"Ġcracking":8026,"Ġpenitence":8027,"Ġpublicly":8028,"Arm":8029,"Arise":8030,"doing":8031,"scap":8032,"Ġmagic":8033,"Ġhazel":8034,"Ġmerely":8035,"ĠCalais":8036,"ĠElizab":8037,"Ġapprehens":8038,"Ġgreyh":8039,"Ġcholeric":8040,"Consider":8041,"glass":8042,"Ġmillions":8043,"regory":8044,"Ġthorns":8045,"Ġbefal":8046,"Ġbefits":8047,"Ġnobler":8048,"ĠSTANLEY":8049,"Ġworthily":8050,"Ġadvertised":8051,"Ġperjury":8052,"Ġwitchcraft":8053,"Ġbrawl":8054,"Ġbrawling":8055,"Ġachieve":8056,"Ġachieved":8057,"Ġsyll":8058,"Ġwinged":8059,"Ġfunction":8060,"Ġhorror":8061,"Ġforsake":8062,"Ġevents":8063,"Ġdissemble":8064,"Ġclimb":8065,"ĠDeath":8066,"Ġrestraint":8067,"Ġafflict":8068,"ĠAntiates":8069,"Ġcircumstances":8070,"Condemn":8071,"Knock":8072,"Small":8073,"mongst":8074,"Ġtimeless":8075,"Ġwidows":8076,"Ġnapkin":8077,"Ġdebase":8078,"Ġsuperfl":8079,"Ġsplit":8080,"Ġvillany":8081,"Ġvolume":8082,"Ġshriek":8083,"Ġdispleasure":8084,"Ġdisguised":8085,"Ġscolding":8086,"Ġcouncil":8087,"Ġcouncils":8088,"Ġcurtain":8089,"Amongst":8090,"Between":8091,"Betwixt":8092,"Pursu":8093,"Seize":8094,"URREY":8095,"Ġbaggage":8096,"Ġhomage":8097,"Ġhigher":8098,"Ġpedlar":8099,"Ġhaughty":8100,"ĠGreece":8101,"ĠScotland":8102,"ĠSpeak":8103,"Ġunfeigned":8104,"Ġappeared":8105,"Ġconsorted":8106,"Ġbankrupt":8107,"Ġdragon":8108,"Ġtransported":8109,"Evermore":8110,"England":8111,"Ġsaucy":8112,"Ġmourning":8113,"Ġcentre":8114,"Ġissued":8115,"Ġsociety":8116,"Ġanchor":8117,"ĠEmilia":8118,"Ġshelter":8119,"ĠWelshmen":8120,"Ġimperial":8121,"Ġlecture":8122,"Ġrestored":8123,"Ġsmiling":8124,"Ġcounsellor":8125,"Ġinferior":8126,"Ġdivorce":8127,"Ġtroublous":8128,"Ġexpedition":8129,"Ġinsolence":8130,"Dispatch":8131,"Ġconcluded":8132,"Ġtestimony":8133,"Ġreckoning":8134,"Affection":8135,"Touching":8136,"posterous":8137,"Ġsands":8138,"Ġcordial":8139,"Ġpestilence":8140,"Ġpupil":8141,"Ġugly":8142,"Ġvulgar":8143,"Ġvassal":8144,"Ġamazement":8145,"Ġcanopy":8146,"Ġrancour":8147,"Ġpocket":8148,"Ġdisobed":8149,"Ġplebeians":8150,"Ġnightingale":8151,"Ġwhistle":8152,"Ġharlot":8153,"Ġmerrily":8154,"Ġterritories":8155,"Ġpuissant":8156,"Ġmedicine":8157,"BONA":8158,"EMILIA":8159,"Gainst":8160,"Grandam":8161,"Harp":8162,"NATHANIEL":8163,"Urge":8164,"iquity":8165,"Ġtonight":8166,"Ġsinew":8167,"Ġwestern":8168,"Ġfemale":8169,"Ġcuckold":8170,"Ġlungs":8171,"Ġobtain":8172,"Ġnotwithstanding":8173,"Ġeloqu":8174,"Ġsolicit":8175,"estival":8176,"Ġvineyard":8177,"ĠLodowick":8178,"ĠBrakenbury":8179,"ĠHercules":8180,"Ġjocund":8181,"ĠPatrician":8182,"ĠPhaethon":8183,"ĠPhoebus":8184,"Ġprecedent":8185,"Ġprerogative":8186,"ĠFrancis":8187,"Ġperemptory":8188,"Ġunderneath":8189,"Ġmerriment":8190,"Ġindifferent":8191,"ĠFlorizel":8192,"ĠElizabeth":8193,"Ġapprehension":8194,"'!":8195,"'--":8196,"Aufidius":8197,"ALIS":8198,"BL":8199,"Bad":8200,"Bore":8201,"Best":8202,"Breat":8203,"Back":8204,"Bohemia":8205,"Beshrew":8206,"Ch":8207,"Che":8208,"Cut":8209,"Chi":8210,"Care":8211,"CIS":8212,"Citizen":8213,"Charge":8214,"Dou":8215,"Dro":8216,"Die":8217,"Ele":8218,"EAR":8219,"Far":8220,"Fri":8221,"Fly":8222,"Fell":8223,"Fine":8224,"Found":8225,"FRAN":8226,"Fool":8227,"Friar":8228,"Fellow":8229,"Gl":8230,"Gu":8231,"Gold":8232,"Gloucester":8233,"Grumio":8234,"Girl":8235,"Given":8236,"Hard":8237,"Host":8238,"Hap":8239,"HOMAS":8240,"Holy":8241,"Ill":8242,"Jul":8243,"Jesu":8244,"Katharina":8245,"Less":8246,"Last":8247,"Lend":8248,"Little":8249,"Lives":8250,"Man":8251,"Mount":8252,"Mere":8253,"Masters":8254,"Mercy":8255,"Near":8256,"Night":8257,"Nine":8258,"Opp":8259,"Oxford":8260,"Pit":8261,"Perc":8262,"Pale":8263,"Red":8264,"Rest":8265,"Ref":8266,"Sin":8267,"Sen":8268,"Sent":8269,"Sad":8270,"Sel":8271,"Soul":8272,"Sorrow":8273,"Sto":8274,"Sland":8275,"Seal":8276,"Sleep":8277,"Tong":8278,"Time":8279,"Tran":8280,"Takes":8281,"Trem":8282,"Tullus":8283,"UNT":8284,"Went":8285,"Yonder":8286,"ait":8287,"aus":8288,"avery":8289,"aled":8290,"acious":8291,"against":8292,"avoided":8293,"bre":8294,"bro":8295,"ball":8296,"book":8297,"bred":8298,"bject":8299,"bham":8300,"bhors":8301,"business":8302,"cas":8303,"could":8304,"cond":8305,"creat":8306,"corn":8307,"chard":8308,"certain":8309,"cats":8310,"custom":8311,"content":8312,"cued":8313,"cency":8314,"dan":8315,"dent":8316,"dur":8317,"dro":8318,"dish":8319,"dict":8320,"doubt":8321,"deliver":8322,"ele":8323,"every":8324,"eress":8325,"eases":8326,"fan":8327,"fix":8328,"fellows":8329,"gom":8330,"gher":8331,"gone":8332,"gnant":8333,"hill":8334,"hra":8335,"ias":8336,"ige":8337,"iod":8338,"iber":8339,"iable":8340,"iction":8341,"iby":8342,"ky":8343,"lay":8344,"lord":8345,"lous":8346,"live":8347,"lves":8348,"lorn":8349,"lause":8350,"mo":8351,"min":8352,"mast":8353,"mak":8354,"matter":8355,"mony":8356,"net":8357,"none":8358,"nel":8359,"need":8360,"oz":8361,"oft":8362,"oever":8363,"phe":8364,"pse":8365,"pter":8366,"pho":8367,"past":8368,"part":8369,"pence":8370,"poor":8371,"piece":8372,"pril":8373,"poses":8374,"rings":8375,"rates":8376,"roop":8377,"sl":8378,"sir":8379,"sil":8380,"song":8381,"sist":8382,"since":8383,"serv":8384,"sorrow":8385,"sby":8386,"sia":8387,"school":8388,"te":8389,"too":8390,"tree":8391,"true":8392,"tered":8393,"trick":8394,"tsey":8395,"uc":8396,"uing":8397,"uity":8398,"ubs":8399,"ugg":8400,"ueless":8401,"vill":8402,"vion":8403,"vity":8404,"vice":8405,"viol":8406,"wr":8407,"wind":8408,"worn":8409,"ween":8410,"widow":8411,"wench":8412,"warn":8413,"worth":8414,"yally":8415,"ymph":8416,"zwater":8417,"Ġ&":8418,"ĠĠ":8419,"ĠNot":8420,"ĠThese":8421,"Ġtil":8422,"Ġtum":8423,"Ġtire":8424,"Ġtatter":8425,"Ġtides":8426,"Ġtunes":8427,"Ġtales":8428,"Ġteeming":8429,"Ġtumbling":8430,"hen":8431,"hence":8432,"Ġau":8433,"Ġaust":8434,"Ġaery":8435,"Ġaches":8436,"Ġsly":8437,"Ġsurn":8438,"Ġsongs":8439,"Ġmot":8440,"Ġmow":8441,"Ġming":8442,"Ġmart":8443,"Ġmum":8444,"Ġmap":8445,"Ġmass":8446,"Ġmute":8447,"Ġmuse":8448,"inc":8449,"inet":8450,"inance":8451,"inable":8452,"inite":8453,"Ġwra":8454,"Ġware":8455,"Ġwaken":8456,"Ġwaning":8457,"Ġwenches":8458,"Ġwalks":8459,"reef":8460,"repare":8461,"reement":8462,"haw":8463,"hast":8464,"happ":8465,"nders":8466,"Ġbust":8467,"Ġbone":8468,"Ġbau":8469,"Ġbind":8470,"Ġbate":8471,"Ġbide":8472,"Ġbaw":8473,"Ġbier":8474,"Ġbale":8475,"Ġbount":8476,"Ġbench":8477,"Ġbash":8478,"Ġbills":8479,"isk":8480,"isle":8481,"Ġfen":8482,"Ġfed":8483,"Ġfut":8484,"Ġfate":8485,"Ġfence":8486,"Ġfile":8487,"Ġfester":8488,"Ġfitted":8489,"Ġfees":8490,"Ġfitting":8491,"Ġfowl":8492,"Ġfront":8493,"Ġfickle":8494,"Ġfathom":8495,"Ġfestival":8496,"erman":8497,"eria":8498,"erwhelm":8499,"itche":8500,"Ġdun":8501,"Ġdaint":8502,"Ġdastard":8503,"Ġdaring":8504,"Ġduteous":8505,"Ġdainty":8506,"Ġced":8507,"Ġcas":8508,"Ġcard":8509,"Ġcele":8510,"Ġnearer":8511,"Ġnerves":8512,"Ġniece":8513,"Ġnuns":8514,"Ġnearest":8515,"Ġnymph":8516,"Ġninet":8517,"Ġlain":8518,"Ġlame":8519,"Ġlass":8520,"Ġlaughter":8521,"Ġlaz":8522,"Ġlecher":8523,"Ġyew":8524,"Ġyellow":8525,"Ġthra":8526,"Ġthres":8527,"Ġthrew":8528,"Ġthreef":8529,"arth":8530,"arling":8531,"Ġhook":8532,"Ġhilt":8533,"Ġhint":8534,"Ġhounds":8535,"Ġhills":8536,"Ġox":8537,"Ġost":8538,"Ġoce":8539,"Ġtoss":8540,"Ġphe":8541,"Ġpir":8542,"Ġpith":8543,"Ġpoo":8544,"Ġpul":8545,"Ġpull":8546,"Ġpark":8547,"Ġpens":8548,"Ġpotion":8549,"Ġpines":8550,"Ġpals":8551,"Ġpiled":8552,"Ġprunes":8553,"ĠIrish":8554,"Ġhen":8555,"Ġhew":8556,"Ġhedge":8557,"oting":8558,"oted":8559,"stit":8560,"stood":8561,"stool":8562,"strue":8563,"staring":8564,"owing":8565,"ange":8566,"anous":8567,"another":8568,"anks":8569,"answer":8570,"oming":8571,"Ġgle":8572,"Ġgay":8573,"Ġgir":8574,"Ġgear":8575,"Ġgilt":8576,"Ġgild":8577,"Ġgorge":8578,"Ġginger":8579,"Ġglove":8580,"atin":8581,"athan":8582,"atory":8583,"atiate":8584,"Ġbeho":8585,"Ġbecom":8586,"sea":8587,"Ġinhabit":8588,"Ġhab":8589,"Ġhaven":8590,"lex":8591,"lehill":8592,"ayer":8593,"ldren":8594,"iry":8595,"edy":8596,"uto":8597,"utus":8598,"utches":8599,"imple":8600,"Ġnotorious":8601,"cho":8602,"Ġissues":8603,"Ġforn":8604,"Ġforms":8605,"Ġforlorn":8606,"keep":8607,"Ġweb":8608,"ooing":8609,"Ġeg":8610,"Ġel":8611,"Ġew":8612,"Ġegg":8613,"hertsey":8614,"enting":8615,"rip":8616,"rian":8617,"ribe":8618,"Ġsty":8619,"Ġstart":8620,"Ġstall":8621,"Ġstage":8622,"Ġstint":8623,"Ġstew":8624,"Ġstray":8625,"Ġsteter":8626,"Ġstring":8627,"Ġstarts":8628,"Ġstrat":8629,"Ġkern":8630,"Ġkenn":8631,"ashy":8632,"asci":8633,"asite":8634,"Ġrevers":8635,"Ġrelish":8636,"Ġrelease":8637,"Ġrevell":8638,"lying":8639,"lysses":8640,"raign":8641,"Ġliars":8642,"urity":8643,"urther":8644,"urps":8645,"urbs":8646,"urope":8647,"alf":8648,"alo":8649,"alance":8650,"alty":8651,"Ġsoar":8652,"Ġsober":8653,"Ġsolace":8654,"Ġascend":8655,"Ġaspiring":8656,"rosby":8657,"hilip":8658,"vering":8659,"Ġshamed":8660,"Ġdol":8661,"Ġdoit":8662,"Ġdoings":8663,"usc":8664,"usale":8665,"usual":8666,"ussia":8667,"ifter":8668,"Ġsem":8669,"Ġsex":8670,"Ġsevent":8671,"Ġsepar":8672,"geon":8673,"geal":8674,"Thither":8675,"Throng":8676,"Ġsues":8677,"Ġsuret":8678,"Ġsulp":8679,"Told":8680,"Together":8681,"Ġherds":8682,"rung":8683,"ruised":8684,"things":8685,"thought":8686,"thren":8687,"Ġant":8688,"Ġangu":8689,"ternal":8690,"arded":8691,"hance":8692,"hanging":8693,"Ġspot":8694,"Ġspell":8695,"Ġspear":8696,"Ġspurn":8697,"Ġspace":8698,"Ġspotted":8699,"Ġfails":8700,"Ġfabric":8701,"ĠCy":8702,"ĠCot":8703,"ĠCast":8704,"ĠCall":8705,"ĠChertsey":8706,"ĠCrosby":8707,"Ġknell":8708,"Ġknavery":8709,"ĠRag":8710,"ĠRoss":8711,"ĠRussia":8712,"Ġvest":8713,"Ġvio":8714,"Ġvap":8715,"Ġvices":8716,"asted":8717,"astian":8718,"Ġwhate":8719,"ighton":8720,"Ġshine":8721,"Ġshouts":8722,"ulation":8723,"Ġupper":8724,"qua":8725,"quin":8726,"quis":8727,"qual":8728,"quess":8729,"quaint":8730,"quiet":8731,"Ġgoodman":8732,"usters":8733,"Ġpry":8734,"Ġatone":8735,"Ġmanly":8736,"Ġmankind":8737,"Ġmanacles":8738,"Ġmangled":8739,"ĠMab":8740,"Ġwheres":8741,"Ġwheels":8742,"ĠEurope":8743,"Ġamity":8744,"Ġamended":8745,"endom":8746,"icing":8747,"ican":8748,"icide":8749,"icester":8750,"Ġconver":8751,"Ġconvers":8752,"Ġconvent":8753,"Ġconstable":8754,"Ġblots":8755,"Ġblasp":8756,"vener":8757,"ĠGuild":8758,"ĠGregory":8759,"Forget":8760,"Ġshepher":8761,"Ġsheets":8762,"eminate":8763,"Ġgoest":8764,"areth":8765,"Ġwasp":8766,"oln":8767,"ĠLay":8768,"ĠLud":8769,"ĠLatin":8770,"Ġhatches":8771,"Ġknowest":8772,"Ġcannib":8773,"ersha":8774,"ershire":8775,"Ġsayest":8776,"Ġswim":8777,"Ġswine":8778,"Ġswifter":8779,"Ġbrine":8780,"Ġbrittle":8781,"pper":8782,"Ġorchard":8783,"ĠSay":8784,"ĠSome":8785,"ĠSix":8786,"ĠShow":8787,"ĠSeb":8788,"ĠSURREY":8789,"ĠSALIS":8790,"Ġusing":8791,"Ġusage":8792,"ĠOf":8793,"ĠOr":8794,"ĠOnce":8795,"ĠOverdone":8796,"ĠBel":8797,"ĠBoy":8798,"ĠBret":8799,"ĠBrist":8800,"ĠBrand":8801,"ĠBishop":8802,"odity":8803,"Ġung":8804,"Ġunity":8805,"Ġunman":8806,"Ġunaw":8807,"Ġunlo":8808,"Ġungra":8809,"Ġunacc":8810,"Ġungentle":8811,"Ġunivers":8812,"Ġunthrift":8813,"Ġunavoided":8814,"Ġunusual":8815,"igation":8816,"ĠHad":8817,"ĠHas":8818,"ĠHallow":8819,"hyme":8820,"elpho":8821,"Ġquest":8822,"Whence":8823,"Ġjar":8824,"Ġjump":8825,"Ġjoll":8826,"Ġhoped":8827,"cible":8828,"cipl":8829,"Ġprover":8830,"Ġproduce":8831,"Ġproffer":8832,"ĠPut":8833,"ĠPil":8834,"ĠPriam":8835,"ĠPhilip":8836,"Ġsails":8837,"umn":8838,"Ġplent":8839,"Ġplotted":8840,"pecially":8841,"ĠWife":8842,"Ġensue":8843,"Ġenroll":8844,"Ġenjoin":8845,"Ġenfranch":8846,"unch":8847,"Ġrood":8848,"Ġrings":8849,"Ġrates":8850,"Ġoutst":8851,"pted":8852,"pture":8853,"Ġhowl":8854,"ĠAE":8855,"ĠAg":8856,"ĠAt":8857,"ĠAfri":8858,"ĠAriel":8859,"ĠAbhors":8860,"ĠApril":8861,"Ġtrudge":8862,"Ġhandle":8863,"Ġsomebod":8864,"Ġmarquess":8865,"Inf":8866,"acket":8867,"ĠYes":8868,"Ġdislike":8869,"Ġdishes":8870,"Ġdisposed":8871,"Ġdiseases":8872,"Ġdiscipl":8873,"Ġhearth":8874,"Ġability":8875,"Ġabuses":8876,"Ġfoaming":8877,"Ġdaylight":8878,"Ġrod":8879,"Ġroad":8880,"Ġrope":8881,"Ġrogues":8882,"Ġroyally":8883,"Ġexha":8884,"Ġexternal":8885,"Ġtellus":8886,"agate":8887,"agems":8888,"Ġrip":8889,"Ġarticles":8890,"Ġarticle":8891,"Ġslide":8892,"Ġslanders":8893,"Ġwary":8894,"Ġwarning":8895,"Ġflour":8896,"Ġflag":8897,"Ġfliers":8898,"Ġfearless":8899,"ĠTHOMAS":8900,"bery":8901,"bering":8902,"oughby":8903,"Ġbrethren":8904,"Beg":8905,"apable":8906,"ighs":8907,"Ġgreatly":8908,"Ġfairies":8909,"izard":8910,"Ġpartake":8911,"Ġpartial":8912,"Ġcalling":8913,"Ġadul":8914,"Ġadorn":8915,"Ġadult":8916,"Ġadder":8917,"Ġcommit":8918,"Ġcommodity":8919,"Yourself":8920,"Ġclothe":8921,"Ġpreparation":8922,"Ġpregnant":8923,"assad":8924,"ĠDion":8925,"ĠDelpho":8926,"Ġperused":8927,"Ġperiod":8928,"liction":8929,"livion":8930,"Ġscra":8931,"Ġscare":8932,"Ġscars":8933,"Ġscouts":8934,"Ġpresum":8935,"Ġpresses":8936,"Ġprescri":8937,"Ġnightly":8938,"pery":8939,"peror":8940,"peration":8941,"Ġraw":8942,"Ġrarest":8943,"Ġraze":8944,"Ġrabble":8945,"Ġkeen":8946,"abb":8947,"ĠFifth":8948,"Ġapplause":8949,"Ġcontem":8950,"Ġremiss":8951,"Ġremote":8952,"ilty":8953,"swear":8954,"sworn":8955,"ressing":8956,"Ġbegging":8957,"Ġlongs":8958,"Ġlonging":8959,"ĠMark":8960,"Ġlively":8961,"meant":8962,"Ġrepaid":8963,"Ġreproof":8964,"Ġreprieve":8965,"forward":8966,"Ġmightily":8967,"atching":8968,"ĠJud":8969,"ĠJule":8970,"Ġrub":8971,"Ġconsume":8972,"Ġconserves":8973,"Ġcrowned":8974,"Ġpeck":8975,"Ġpeasant":8976,"hallow":8977,"Ġlevied":8978,"Ġharms":8979,"Ġharder":8980,"Ġresteth":8981,"Ġcourses":8982,"Ġentire":8983,"attery":8984,"Ġtongueless":8985,"Ġkeeping":8986,"iously":8987,"Ġslender":8988,"Ġreserved":8989,"Ġresidence":8990,"fts":8991,"Ġmoans":8992,"Ġmolehill":8993,"retion":8994,"Ġhourly":8995,"uddy":8996,"Ġendow":8997,"Ġendea":8998,"ieldy":8999,"Ġpricks":9000,"Ġpurged":9001,"Ġpurses":9002,"Ġpursues":9003,"Ġpurposes":9004,"Ġcompell":9005,"Ġcomposition":9006,"ertainty":9007,"Ġchain":9008,"Ġchaff":9009,"Ġchains":9010,"Prosper":9011,"Ġsuborn":9012,"Ġsubsc":9013,"Ġsubmission":9014,"Ġsuburbs":9015,"Ġsmiled":9016,"Ġsmelt":9017,"ected":9018,"Ġtraged":9019,"Ġtragic":9020,"Ġtraffic":9021,"Ġhush":9022,"Ġneedy":9023,"two":9024,"Ġtreble":9025,"Stir":9026,"Ġseemeth":9027,"Ġrightly":9028,"aching":9029,"Ġbragg":9030,"Ġbrazen":9031,"Ġcheers":9032,"Ġcharms":9033,"Ġcharters":9034,"Ġcharitable":9035,"Ġchanges":9036,"Ġconfined":9037,"Ġhandsome":9038,"beha":9039,"bered":9040,"Ġcoats":9041,"Ġglister":9042,"Ġimpose":9043,"Ġfortnight":9044,"Ġfortunate":9045,"Ġbringing":9046,"Ġmistook":9047,"Ġpasses":9048,"Ġthrong":9049,"Ġpleaseth":9050,"ĠAnswer":9051,"Clifford":9052,"Ġbesiege":9053,"Ġjustly":9054,"Ġjustify":9055,"Ġwrongfully":9056,"Ġmiscar":9057,"ension":9058,"Ġplaced":9059,"blind":9060,"Ġundert":9061,"Ġhelping":9062,"Ġlesson":9063,"Ġfooling":9064,"Ġsuns":9065,"Ġchid":9066,"Ġchides":9067,"Ġchron":9068,"Unb":9069,"Unw":9070,"Ġbusied":9071,"Angelo":9072,"overed":9073,"Ġstride":9074,"Ġstripes":9075,"ivity":9076,"Ġstreak":9077,"Ġwomanish":9078,"Ġturning":9079,"Ġhumane":9080,"Ġbelongs":9081,"Ġcourts":9082,"Ġtalked":9083,"Ġoverheard":9084,"Ġoverthrow":9085,"Ġbuilt":9086,"Ġburial":9087,"Ġibat":9088,"Ġattent":9089,"Ġattach":9090,"Ġplays":9091,"Ġinstance":9092,"Ġinstead":9093,"Ġwelcom":9094,"Ġwelkin":9095,"Ġcurs":9096,"Ġcurbs":9097,"Ġemulation":9098,"pling":9099,"plain":9100,"Ġsending":9101,"Ġcountryman":9102,"Ġdoubted":9103,"Ġwishing":9104,"Ġreasonable":9105,"Wouldst":9106,"Ġdances":9107,"Ġbreaths":9108,"Ġgiant":9109,"Ġstrain":9110,"Ġdiscred":9111,"Ġdiscords":9112,"Ġdiscreet":9113,"Ġdiscovery":9114,"Ġdiscretion":9115,"Alone":9116,"Ġsenis":9117,"Ġcommandment":9118,"Ġwinding":9119,"Ġstrang":9120,"Ġswearing":9121,"Ġdepth":9122,"comb":9123,"comfort":9124,"Ġtending":9125,"Ġgreets":9126,"Ġgetting":9127,"Ġintends":9128,"Ġintended":9129,"Ġinterest":9130,"Ġkissing":9131,"Ġbreaking":9132,"Ġawe":9133,"Ġawful":9134,"Hermione":9135,"Ġtemperate":9136,"Ġsupple":9137,"Ġspoils":9138,"Ġlamp":9139,"Ġrequite":9140,"Ġrequital":9141,"Ġmete":9142,"Ġsoonest":9143,"Ġreturns":9144,"acre":9145,"ackey":9146,"Ġmarrying":9147,"Ġfooting":9148,"Ġwarrants":9149,"ĠJulius":9150,"Ġthroughly":9151,"soe":9152,"Ġchoke":9153,"Ġcolder":9154,"Ġasked":9155,"Ġplucked":9156,"show":9157,"ĠMontgom":9158,"Ġstrangely":9159,"Ġbats":9160,"Ġentreated":9161,"Whoop":9162,"Ġvisor":9163,"Ġdispro":9164,"ixture":9165,"Mayor":9166,"Ġordain":9167,"Ġordinance":9168,"Ġquicken":9169,"Ġdesired":9170,"Ġhardy":9171,"Ġwooers":9172,"Ġinfancy":9173,"Ġinfamy":9174,"Ġinflu":9175,"Ġinfinite":9176,"Become":9177,"Spoke":9178,"Ġwearing":9179,"Ġdelivery":9180,"Ġspeedily":9181,"Ġquarre":9182,"Ġprofound":9183,"Ġstrengthen":9184,"cession":9185,"Ġforefather":9186,"Ġforerun":9187,"Ġforetell":9188,"Ġdivide":9189,"Ġcarrion":9190,"Ġposts":9191,"Ġposterns":9192,"Ġexecut":9193,"Ġparch":9194,"Ġparadise":9195,"Ġparlous":9196,"Ġparasite":9197,"Ġincur":9198,"Ġincapable":9199,"Ġrecount":9200,"ĠTheir":9201,"Ġtitles":9202,"Ġopening":9203,"Ġshorten":9204,"Ġseeking":9205,"Ġmurdering":9206,"changing":9207,"Ġvehe":9208,"ĠHelp":9209,"Ġagony":9210,"Ġagreement":9211,"Ġwhipped":9212,"Ġwatchful":9213,"Ġdistemper":9214,"Seeking":9215,"Ġacting":9216,"Ġwasted":9217,"Ġwondering":9218,"Ġbites":9219,"Ġbiting":9220,"Ġstole":9221,"Ġstirru":9222,"Ġclouded":9223,"suing":9224,"Ġdrinks":9225,"Ġpraised":9226,"Ġenterpr":9227,"voury":9228,"Ġfitter":9229,"Ġgarlic":9230,"Ġchangeling":9231,"Ġdeliverance":9232,"LORDS":9233,"ĠThink":9234,"Ġskin":9235,"Ġsickly":9236,"Ġsignories":9237,"Ġwishes":9238,"Ġregion":9239,"Ġregreet":9240,"Ġconsuls":9241,"Ġcheerful":9242,"Ġordering":9243,"Ġorderly":9244,"Ġfourth":9245,"Ġdug":9246,"Ġducats":9247,"Ġliberties":9248,"verns":9249,"Ġmoveables":9250,"shell":9251,"sheathe":9252,"Ġfrowning":9253,"Ġfeasting":9254,"Ġgrove":9255,"Ġsoften":9256,"Ġbeggary":9257,"Ġconsented":9258,"Revol":9259,"ĠForrest":9260,"hematic":9261,"Ġbarb":9262,"Ġbarr":9263,"Ġbargain":9264,"Ġdropp":9265,"Ġdarken":9266,"Ġdarkly":9267,"Ġcrad":9268,"Ġcrimes":9269,"Ġcrutch":9270,"ĠChurch":9271,"Ġexpost":9272,"Ġgotten":9273,"Ġintercept":9274,"Ġintercession":9275,"Ġevident":9276,"Ġsummon":9277,"Ġvictorious":9278,"Ġrespects":9279,"Ġbriefly":9280,"Ġvisiting":9281,"Ġmalicious":9282,"Ġspeechless":9283,"Ġworshipful":9284,"spo":9285,"Ġfresher":9286,"Ġfreshest":9287,"Ġlimb":9288,"Ġpenury":9289,"Ġpenny":9290,"ĠPlace":9291,"ĠPlayer":9292,"ĠPlashy":9293,"Ġleader":9294,"Ġpatiently":9295,"Ġlamentations":9296,"Ġbroils":9297,"Ġbawdy":9298,"Ġcleft":9299,"Ġcreation":9300,"Ġcapable":9301,"Ġcapital":9302,"Ġlacks":9303,"Ġopposed":9304,"Ġeating":9305,"Ġviolate":9306,"Ġapproaches":9307,"Ġcomplices":9308,"ĠChristendom":9309,"Ġsurm":9310,"Ġsurly":9311,"Ġsurvey":9312,"Conf":9313,"Plain":9314,"Pluck":9315,"Ġbirths":9316,"arlisle":9317,"Ġpainful":9318,"Ġbecame":9319,"Standing":9320,"Ġtorches":9321,"Ġtorments":9322,"Ġwildly":9323,"Ġcaus":9324,"Ġcertainly":9325,"semary":9326,"Ġinjured":9327,"Ġinnocency":9328,"Ġurging":9329,"Thinking":9330,"ĠStand":9331,"ĠStaff":9332,"Ġpleasures":9333,"Mariner":9334,"Ġapothecary":9335,"Ġshock":9336,"Ġmeditation":9337,"Ġobst":9338,"Ġobdur":9339,"Ġoblivion":9340,"Ġdooms":9341,"Ġfavourable":9342,"Ġuncertain":9343,"ighbours":9344,"ĠEnglishman":9345,"Ġlane":9346,"settled":9347,"Ġrefuge":9348,"ĠMercury":9349,"Ġtempor":9350,"Enforce":9351,"Envir":9352,"bborn":9353,"himself":9354,"Ġdrowning":9355,"angled":9356,"Ġeffects":9357,"Ġswiftly":9358,"ĠPrithee":9359,"Ġdesperately":9360,"Ġdoublet":9361,"Meaning":9362,"Ġauthorities":9363,"Ġfruits":9364,"Ġelders":9365,"Ġstudies":9366,"Ġstudied":9367,"Ġenjoys":9368,"Ġwretchedness":9369,"Brought":9370,"eye":9371,"eyed":9372,"Ġbastardy":9373,"Ġcorners":9374,"Ġhelms":9375,"stantial":9376,"Ġdegenerate":9377,"Ġseverity":9378,"ĠWilloughby":9379,"Ġcountermand":9380,"Ġcounterpo":9381,"Ġbeggarly":9382,"Loved":9383,"monstrous":9384,"Ġdwelling":9385,"Ġgentry":9386,"Ġbutchers":9387,"Ġunfit":9388,"Ġadded":9389,"Ġprivately":9390,"Ġverge":9391,"Ġverity":9392,"attling":9393,"Ġrelation":9394,"Ġrelieve":9395,"Ġdealing":9396,"Ġarrival":9397,"Ġsmoking":9398,"Blind":9399,"Desp":9400,"Except":9401,"constable":9402,"Ġbait":9403,"Ġstabbed":9404,"Ġspeeches":9405,"Ġshores":9406,"Ġproofs":9407,"Ġjointure":9408,"Ġprophecies":9409,"Ġembracements":9410,"Ġinnocents":9411,"Adieu":9412,"Advance":9413,"Ġedict":9414,"Ġwagon":9415,"rehend":9416,"Ġelection":9417,"Ġelements":9418,"Ġdecree":9419,"Ġdecrees":9420,"Ġnecessary":9421,"Ġnecessities":9422,"Ġsailors":9423,"Ġprevails":9424,"Rescue":9425,"Ġescap":9426,"ĠWherefore":9427,"Ġoffenders":9428,"Ġheaviness":9429,"Ġheavily":9430,"Showing":9431,"Ġprofession":9432,"Ġexpressly":9433,"appare":9434,"proud":9435,"Ġbandy":9436,"Ġbondage":9437,"Ġdetested":9438,"Ġcalf":9439,"Ġphysicians":9440,"Ġvanqu":9441,"Ġvanish":9442,"Ġdeserts":9443,"Ġtransg":9444,"Ġaffected":9445,"Ġleanness":9446,"Ġaccusations":9447,"Ġpunishment":9448,"Repair":9449,"Ġbasil":9450,"Ġfeeble":9451,"Ġfashions":9452,"Ġdivers":9453,"Ġports":9454,"Ġportion":9455,"Ġbewray":9456,"Ġcomplete":9457,"Ġambush":9458,"Ġambassad":9459,"Ġargument":9460,"Ġarguments":9461,"ĠProceed":9462,"Ġadvancement":9463,"Ġpersuaded":9464,"Ġpetitions":9465,"Ġsolemnity":9466,"Bearing":9467,"Heavens":9468,"exec":9469,"score":9470,"itae":9471,"Ġhostess":9472,"Ġobscured":9473,"Ġshunn":9474,"Ġblocks":9475,"Ġquality":9476,"Ġqualities":9477,"Ġqualify":9478,"Ġalteration":9479,"Ġmaidenhead":9480,"Ġvexation":9481,"Setting":9482,"brain":9483,"Ġmorsel":9484,"Ġdigest":9485,"Ġthorny":9486,"Ġsprites":9487,"ĠCobham":9488,"Ġcombat":9489,"Ġworthier":9490,"Ġworthiest":9491,"Ġjewels":9492,"ĠAdam":9493,"ĠAdieu":9494,"Ġdisperse":9495,"Ġclamorous":9496,"Ġdirectly":9497,"Accursed":9498,"maids":9499,"shapen":9500,"weary":9501,"Ġsymp":9502,"Ġsalute":9503,"Ġfiends":9504,"Ġdimm":9505,"Ġdriven":9506,"Ġceremony":9507,"Ġlinen":9508,"Ġhorrible":9509,"Ġpikes":9510,"Ġforsook":9511,"Ġreckless":9512,"Ġunjustly":9513,"Ġenforcement":9514,"Ġdissembling":9515,"Ġfloods":9516,"Ġrestrain":9517,"Ġresisted":9518,"Ġaffliction":9519,"Ġreconciled":9520,"Ġhelmets":9521,"Ġcomplexions":9522,"Imagine":9523,"Knows":9524,"Quick":9525,"Rich":9526,"Richmond":9527,"Smile":9528,"boding":9529,"ratitude":9530,"warrant":9531,"Ġtimorous":9532,"oubted":9533,"Ġmirror":9534,"Ġmessage":9535,"inctly":9536,"Ġbuckle":9537,"Ġdifferen":9538,"Ġdifference":9539,"Ġlineal":9540,"Ġgrub":9541,"Ġstumbled":9542,"Ġreceives":9543,"Ġreceipt":9544,"Ġshameless":9545,"Ġfactious":9546,"Ġdispleased":9547,"Ġdisguise":9548,"Ġcoffin":9549,"Ġcoffers":9550,"Ġgratis":9551,"Ġincense":9552,"Ġacquaintance":9553,"Awaked":9554,"Darest":9555,"Witness":9556,"Withal":9557,"pretation":9558,"Ġtoucheth":9559,"Ġtrod":9560,"Ġbonny":9561,"Ġfretting":9562,"Ġnettle":9563,"Ġlurk":9564,"Ġlurking":9565,"Ġthirsty":9566,"Ġhomicide":9567,"Ġhighest":9568,"Ġtoys":9569,"Ġwealthy":9570,"Ġspectacle":9571,"Ġblasts":9572,"ĠValent":9573,"ĠValeria":9574,"Ġhopeless":9575,"Ġengross":9576,"Ġflinty":9577,"Ġbeguiled":9578,"Ġsubdue":9579,"Ġsubdued":9580,"Ġbeauties":9581,"Ġbeautiful":9582,"Ġsacrifice":9583,"Ġlengthens":9584,"Brave":9585,"Persuade":9586,"Persuades":9587,"Write":9588,"called":9589,"contin":9590,"Ġsession":9591,"Ġmathematic":9592,"Ġporter":9593,"Ġpainting":9594,"Ġgnaw":9595,"Ġgainsay":9596,"seeming":9597,"Ġgossips":9598,"Ġuneven":9599,"Ġunrevere":9600,"Ġprodigy":9601,"Ġprodigal":9602,"Ġencourage":9603,"Ġdisinherit":9604,"Ġdisinherited":9605,"Ġabundant":9606,"Ġabundance":9607,"Ġrobbers":9608,"Ġcontrol":9609,"Ġcontroversy":9610,"Ġaccomplish":9611,"Ġtrenches":9612,"Ġbuzzard":9613,"Ġattorneys":9614,"Ġdrooping":9615,"Ġembraced":9616,"Ġobsequies":9617,"Ġdetestable":9618,"Acquaint":9619,"Caius":9620,"beseeming":9621,"tinent":9622,"Ġmasqu":9623,"Ġbulk":9624,"Ġfifty":9625,"Ġfilthy":9626,"Ġcropp":9627,"Ġpowder":9628,"Ġpicture":9629,"Ġeffeminate":9630,"Ġstinking":9631,"Ġdeceased":9632,"Ġdeformity":9633,"Ġdoleful":9634,"Ġannoy":9635,"Ġancestors":9636,"Ġsparkling":9637,"ĠLovel":9638,"Ġplanet":9639,"ĠWestmin":9640,"Ġrheum":9641,"Ġrigour":9642,"Ġclergy":9643,"Ġeverlasting":9644,"Ġrumour":9645,"Ġaccompany":9646,"Ġchampion":9647,"Ġconfederate":9648,"Ġafterwards":9649,"Happily":9650,"Ġcriminal":9651,"Ġsummers":9652,"Ġinsinuate":9653,"Ġunprovided":9654,"Ġunluckily":9655,"Ġmagistrate":9656,"Ġlineaments":9657,"Ġsurprised":9658,"Ġfantastical":9659,"Ġmomentary":9660,"Banish":9661,"Deny":9662,"Destroy":9663,"Err":9664,"Renowned":9665,"married":9666,"minded":9667,"person":9668,"sometimes":9669,"withal":9670,"ĠUlysses":9671,"Ġturtle":9672,"Ġtinker":9673,"Ġtreaty":9674,"Ġacknowledge":9675,"Ġmantle":9676,"Ġderived":9677,"Ġdiligence":9678,"Ġdrowsy":9679,"Ġcandle":9680,"Ġyesternight":9681,"Ġominous":9682,"Ġgamut":9683,"Ġbeetle":9684,"Ġinveterate":9685,"Ġinvention":9686,"Ġinheritance":9687,"imois":9688,"Ġstubborn":9689,"Ġresemblance":9690,"ĠCleomenes":9691,"Ġvigour":9692,"Forthwith":9693,"ĠLammas":9694,"Ġorphans":9695,"Ġusurer":9696,"Ġunpleasing":9697,"Ġworships":9698,"ĠHappy":9699,"ĠAmazon":9700,"Ġdisloyal":9701,"Ġexclaims":9702,"ĠTurks":9703,"Ġprecise":9704,"Ġscourge":9705,"Ġchivalry":9706,"Ġappellant":9707,"Ġimmediately":9708,"ĠJerusale":9709,"ĠJuno":9710,"Ġconspiracy":9711,"Ġchafed":9712,"Ġsuppliant":9713,"Ġinfringe":9714,"Ġinfirmity":9715,"Ġminstrels":9716,"Ġdistinguish":9717,"Ġmalignant":9718,"Ġargosy":9719,"scaped":9720,"Pursuivant":9721,"Ġeloquence":9722,"BLUNT":9723,"Breathe":9724,"Children":9725,"EARL":9726,"FRANCIS":9727,"Glad":9728,"Hostess":9729,"Juliet":9730,"Merely":9731,"Perchance":9732,"Senators":9733,"Souls":9734,"Stop":9735,"Tongue":9736,"creature":9737,"corner":9738,"danger":9739,"igeia":9740,"makers":9741,"ozine":9742,"Ġtumult":9743,"Ġsurname":9744,"Ġbustle":9745,"Ġbauble":9746,"Ġbashful":9747,"Ġfuture":9748,"Ġnineteen":9749,"Ġlazy":9750,"Ġthreefold":9751,"Ġpoorest":9752,"Ġgirls":9753,"athaniel":9754,"Ġsteterat":9755,"Ġstratagems":9756,"Ġkennel":9757,"ascivious":9758,"Ġseparated":9759,"Ġsulphur":9760,"Ġanguish":9761,"ĠCastle":9762,"ĠRagozine":9763,"Ġviolet":9764,"Ġshepherds":9765,"ĠLudlow":9766,"ĠSixth":9767,"ĠSebastian":9768,"ĠSALISBURY":9769,"ĠBristol":9770,"ĠBrandon":9771,"Ġunawares":9772,"Ġunaccustom":9773,"ĠHallowmas":9774,"ĠAbhorson":9775,"Ġsomebody":9776,"Ġadulteress":9777,"ĠDelphos":9778,"Ġsubscribe":9779,"ĠMontgomery":9780,"Ġenterprise":9781,"ĠStafford":9782,"Ġobdurate":9783,"Ġmathematics":9784,"ĠWestminster":9785,"ĠJerusalem":9786,"'m":9787,"'ve":9788,"Aim":9789,"Ant":9790,"Ariel":9791,"Bu":9792,"Bea":9793,"Bare":9794,"Been":9795,"Base":9796,"Bianca":9797,"Boot":9798,"Bishop":9799,"Bushy":9800,"Brief":9801,"Cor":9802,"Cur":9803,"Chan":9804,"CARD":9805,"Crown":9806,"Cull":9807,"Certain":9808,"Coun":9809,"Cambio":9810,"Cuts":9811,"Captain":9812,"Dre":9813,"Day":9814,"Dra":9815,"Done":9816,"Dry":9817,"Dig":9818,"Del":9819,"Dull":9820,"Deep":9821,"Dorset":9822,"During":9823,"EAS":9824,"Emb":9825,"Earth":9826,"Fan":9827,"Four":9828,"Fam":9829,"Fast":9830,"Fare":9831,"Further":9832,"Gro":9833,"Gave":9834,"Gremio":9835,"Grim":9836,"Grief":9837,"Him":9838,"Hea":9839,"HEY":9840,"Holl":9841,"Honour":9842,"Hover":9843,"Honest":9844,"Half":9845,"Iron":9846,"Joy":9847,"Jove":9848,"John":9849,"Killing":9850,"Le":9851,"Lim":9852,"Lau":9853,"List":9854,"Learn":9855,"Laid":9856,"Lift":9857,"Lament":9858,"Lascivious":9859,"Mond":9860,"Meet":9861,"Merc":9862,"Matter":9863,"Mont":9864,"Mars":9865,"Maid":9866,"Mortal":9867,"Menenius":9868,"New":9869,"Need":9870,"Nature":9871,"Pe":9872,"Po":9873,"Pom":9874,"Ple":9875,"Pri":9876,"Pra":9877,"Past":9878,"Pity":9879,"Pass":9880,"Pret":9881,"Padua":9882,"Pisa":9883,"Prick":9884,"Ra":9885,"Rec":9886,"Rise":9887,"Rage":9888,"RIST":9889,"Sk":9890,"Sl":9891,"Sn":9892,"Sed":9893,"Sith":9894,"Sher":9895,"Sea":9896,"Saint":9897,"Sister":9898,"Spl":9899,"Sham":9900,"Suff":9901,"Sorry":9902,"Safe":9903,"Silence":9904,"Simois":9905,"Ty":9906,"Tor":9907,"Thi":9908,"Tear":9909,"Tend":9910,"Tick":9911,"Tears":9912,"Taking":9913,"Tread":9914,"Troth":9915,"Taste":9916,"TIT":9917,"Temper":9918,"Tribunes":9919,"Us":9920,"Vis":9921,"VEL":9922,"Vince":9923,"Vile":9924,"Verona":9925,"Wear":9926,"Wind":9927,"Wish":9928,"Wise":9929,"Wrong":9930,"Words":9931,"Wrench":9932,"York":9933,"ah":9934,"avy":9935,"acheth":9936,"avoury":9937,"bu":9938,"bet":9939,"bion":9940,"bout":9941,"both":9942,"bound":9943,"been":9944,"bew":9945,"bary":9946,"bring":9947,"brows":9948,"bawd":9949,"bishop":9950,"cr":9951,"cre":9952,"cer":9953,"cke":9954,"crow":9955,"cum":9956,"cold":9957,"cass":9958,"cause":9959,"cup":9960,"cures":9961,"cover":9962,"cote":9963,"cerity":9964,"did":9965,"dam":9966,"die":9967,"del":9968,"dges":9969,"dying":9970,"dares":9971,"ev":9972,"ece":9973,"even":9974,"ection":9975,"fes":9976,"fear":9977,"fast":9978,"five":9979,"fond":9980,"fig":9981,"fire":9982,"face":9983,"fied":9984,"fool":9985,"fair":9986,"finger":9987,"false":9988,"front":9989,"gent":9990,"gess":9991,"god":9992,"gger":9993,"gier":9994,"gments":9995,"gentleman":9996,"gging":9997,"goose":9998,"hot":9999}